{
  "</s>": 0,
  "<unk>": 1,
  ".": 2,
  ",": 3,
  "\u2581": 4,
  "\u2581the": 5,
  "s": 6,
  "\u2581to": 7,
  "\u2581of": 8,
  "\u2581a": 9,
  "\u2581and": 10,
  "\u2581in": 11,
  "?": 12,
  ":": 13,
  "\u2581that": 14,
  "'": 15,
  "\u2581-": 16,
  "\u2581is": 17,
  "\u2581(": 18,
  "\u2581e": 19,
  "-": 20,
  "\u2581I": 21,
  "\u2581for": 22,
  "\u2581you": 23,
  ")": 24,
  "a": 25,
  "\u200c": 26,
  "\u2581\u201d": 27,
  "t": 28,
  "\u2581\u201c": 29,
  "\u2581na": 30,
  "\u2581be": 31,
  "\u2581i": 32,
  "i": 33,
  "\u2019": 34,
  "e": 35,
  "\u2581not": 36,
  "\u2581te": 37,
  "\u2581he": 38,
  "\u2581with": 39,
  "\u2581on": 40,
  "m": 41,
  "\u2581it": 42,
  "\u2581de": 43,
  "d": 44,
  "\u2581we": 45,
  "u": 46,
  "o": 47,
  ";": 48,
  "\u2581o": 49,
  "\u2581are": 50,
  "\u2581The": 51,
  "\u2581an": 52,
  "\u2581as": 53,
  "\u2581\u2014": 54,
  "\u2581will": 55,
  "\u2581have": 56,
  "\u2581was": 57,
  "!": 58,
  "\u2581his": 59,
  "na": 60,
  "\u2581God": 61,
  "\u2581A": 62,
  "\u2581ti": 63,
  "\u2581they": 64,
  "\u2581sa": 65,
  "\u2581do": 66,
  "\u2581me": 67,
  "\u2581Jehovah": 68,
  "\u2581from": 69,
  "\u2581by": 70,
  "n": 71,
  "ta": 72,
  "\u2581this": 73,
  "\u2581li": 74,
  "\u2581\u2018": 75,
  "\u2581ka": 76,
  "y": 77,
  "\u2581la": 78,
  "k": 79,
  "la": 80,
  "\u2581so": 81,
  "\u2581or": 82,
  "\u2581them": 83,
  "\u2581ku": 84,
  "\u2581nga": 85,
  "ka": 86,
  "te": 87,
  "\u2581your": 88,
  "\u2581who": 89,
  "ni": 90,
  "\u2581all": 91,
  "\u2581their": 92,
  "\u2581_": 93,
  "r": 94,
  "\u2581ma": 95,
  "\u2581can": 96,
  "\u2581ni": 97,
  "...": 98,
  "\u2581him": 99,
  "\u2581at": 100,
  "\u2581ko": 101,
  "\u2581le": 102,
  "\u2581no": 103,
  "re": 104,
  "\u2581ne": 105,
  "l": 106,
  "da": 107,
  "\u2581se": 108,
  "\u2581ta": 109,
  "ti": 110,
  "to": 111,
  "li": 112,
  "an": 113,
  "\u2581di": 114,
  "\u2581ki": 115,
  "le": 116,
  "\u2581%": 117,
  "\u060c": 118,
  "\u2581E": 119,
  "\u2581ya": 120,
  "\u2581ha": 121,
  "ma": 122,
  "\u2581n": 123,
  "\u2581\"": 124,
  "g": 125,
  "c": 126,
  "\u2581us": 127,
  "en": 128,
  "b": 129,
  "\u2581our": 130,
  "\u2581u": 131,
  "\u2581what": 132,
  "ne": 133,
  "ko": 134,
  "ra": 135,
  "\u2581da": 136,
  "\u2581\u2019": 137,
  "ga": 138,
  "\u2581Jesus": 139,
  "\u2581He": 140,
  "sa": 141,
  "\u2581And": 142,
  "de": 143,
  "er": 144,
  "se": 145,
  "lo": 146,
  "si": 147,
  "ing": 148,
  "\u2581my": 149,
  "\u2581pa": 150,
  "\u2581one": 151,
  "\u2581\u0648": 152,
  "\u2581ke": 153,
  "\u2581were": 154,
  "\u2581has": 155,
  "\u25811": 156,
  "in": 157,
  "ba": 158,
  "\u2581mo": 159,
  "\u2581In": 160,
  "\u2581si": 161,
  "\u2581[": 162,
  "\u2581What": 163,
  "\u2581when": 164,
  "no": 165,
  "\u2581ba": 166,
  "\u2581had": 167,
  "\u2581ri": 168,
  "/": 169,
  "\u2581We": 170,
  "\u2581but": 171,
  "h": 172,
  "\u0323": 173,
  "tu": 174,
  "p": 175,
  "\u0646": 176,
  "\u2581which": 177,
  "\u2581people": 178,
  "\u2581mu": 179,
  "\u0631": 180,
  "\u2581s": 181,
  "ri": 182,
  "\u2581O": 183,
  "\u2581en": 184,
  "ro": 185,
  "ke": 186,
  "wa": 187,
  "\u2581re": 188,
  "z": 189,
  "ya": 190,
  "di": 191,
  "ku": 192,
  "\u2018": 193,
  "\u2581about": 194,
  "]": 195,
  "\u06cc": 196,
  "\u2581shall": 197,
  "mi": 198,
  "ar": 199,
  "\u2581may": 200,
  "\u2581out": 201,
  "ed": 202,
  "ki": 203,
  "\u2581You": 204,
  "ja": 205,
  "\u2581those": 206,
  "va": 207,
  "j": 208,
  "\u2581man": 209,
  "\u2581said": 210,
  "\u2581Bible": 211,
  "\u0442": 212,
  "\u2581y": 213,
  "\u2581would": 214,
  "mo": 215,
  "\u2581wa": 216,
  "me": 217,
  "al": 218,
  "\u2581l": 219,
  "\u2581It": 220,
  "ve": 221,
  "\u2581S": 222,
  "ng": 223,
  "\u2581d": 224,
  "\u2581up": 225,
  "\u0648": 226,
  "\u2581un": 227,
  "\u02c8": 228,
  "\u2581if": 229,
  "\u2581va": 230,
  "do": 231,
  "lu": 232,
  "ch": 233,
  "\u2581time": 234,
  "\u2581\u00ab": 235,
  "\u2581et": 236,
  "ye": 237,
  "\u2581did": 238,
  "\u2581there": 239,
  "zi": 240,
  "mu": 241,
  "je": 242,
  "\u02bc": 243,
  "\u2581tu": 244,
  "yo": 245,
  "es": 246,
  "\u2581been": 247,
  "ci": 248,
  "x": 249,
  "\u2581How": 250,
  "\u2581should": 251,
  "\u043c": 252,
  "\u2581also": 253,
  "\u2581her": 254,
  "_": 255,
  "st": 256,
  "hi": 257,
  "v": 258,
  "\u0645": 259,
  "\u2581No": 260,
  "\u0441": 261,
  "\u0647": 262,
  "\u2581more": 263,
  "be": 264,
  "ha": 265,
  "\u043a": 266,
  "\u2581\u0438": 267,
  "\u7684": 268,
  "is": 269,
  "\u2581ye": 270,
  "\u043b": 271,
  "\u2581ra": 272,
  "w": 273,
  "\u2581Na": 274,
  "za": 275,
  "\u2581su": 276,
  "bi": 277,
  "\u0439": 278,
  "\u2581But": 279,
  "\u2581m": 280,
  "\u2581b": 281,
  "\u2581know": 282,
  "vi": 283,
  "\u2581c": 284,
  "pa": 285,
  "\u2581\u0628\u0647": 286,
  "ly": 287,
  "ny": 288,
  "\u2581bi": 289,
  "\u0445": 290,
  "so": 291,
  "we": 292,
  "f": 293,
  "\u2581ai": 294,
  "\u2581into": 295,
  "ge": 296,
  "\u0430": 297,
  "\u2581life": 298,
  "\u2581go": 299,
  "\u2581lo": 300,
  "S": 301,
  "\u2581This": 302,
  "go": 303,
  "\u2581mi": 304,
  "\u2581Allah": 305,
  "on": 306,
  "\u2581other": 307,
  "\u2581size": 308,
  "\u2581ia": 309,
  "\"": 310,
  "\u0443": 311,
  "\u2581C": 312,
  "\u2581So": 313,
  "\u0438": 314,
  "\u2581For": 315,
  "\u2581t": 316,
  "\u2581some": 317,
  "\u2581good": 318,
  "bo": 319,
  "\u2581how": 320,
  "\u25812": 321,
  "ca": 322,
  "A": 323,
  "\u0434": 324,
  "ll": 325,
  "ce": 326,
  "\u2581&": 327,
  "\u043d": 328,
  "\u2581ga": 329,
  "\u2581mai": 330,
  "\u0435": 331,
  "\u2581po": 332,
  "ru": 333,
  "\u2581men": 334,
  "\u2581Ma": 335,
  "fa": 336,
  "\u0440": 337,
  "ho": 338,
  "\u2581je": 339,
  "\u2581make": 340,
  "\u2581'": 341,
  "\u2581way": 342,
  "\u2581things": 343,
  "gi": 344,
  "\u2581like": 345,
  "\u062a": 346,
  "\u2581They": 347,
  "nga": 348,
  "\u2581help": 349,
  "\u2581\u043d\u0430": 350,
  "as": 351,
  "\u2581ca": 352,
  "\u2581such": 353,
  "\u043d\u0438": 354,
  "\u2581bu": 355,
  "\u0433\u0430": 356,
  "\u2581To": 357,
  "\u2581day": 358,
  "\u2581za": 359,
  "it": 360,
  "\u2581than": 361,
  "he": 362,
  "man": 363,
  "\u2581If": 364,
  "\u2581ar": 365,
  "\u2581que": 366,
  "\u2581ang": 367,
  "\u2581\u0430": 368,
  "\u2581these": 369,
  "\u2581pe": 370,
  "\u0633": 371,
  "C": 372,
  "\u1295": 373,
  "\u2581come": 374,
  "us": 375,
  "\u2581any": 376,
  "\u00e1": 377,
  "I": 378,
  "\u2581die": 379,
  "\u0440\u0430": 380,
  "\u2581mga": 381,
  "\u2581over": 382,
  "\u2581du": 383,
  "\u2581made": 384,
  "E": 385,
  "\u2581ci": 386,
  "\u2581K": 387,
  "\u043d\u0430": 388,
  "\u2581could": 389,
  "\u2581then": 390,
  "\u2581chi": 391,
  ").": 392,
  "\u2581its": 393,
  "po": 394,
  "\u2581she": 395,
  "\u2581only": 396,
  "\u200d": 397,
  "\u2581many": 398,
  "\u2581does": 399,
  "sta": 400,
  "\u00ad": 401,
  "il": 402,
  "pe": 403,
  "\u2581U": 404,
  "nu": 405,
  "\u2581Do": 406,
  "\u2581work": 407,
  "\u043f": 408,
  "bu": 409,
  "\u2581B": 410,
  "\u2581even": 411,
  "\u2581hi": 412,
  "\u2581M": 413,
  "\u2581k": 414,
  "\u2581N": 415,
  "\u2581before": 416,
  "\u2581Ka": 417,
  "\u2581per": 418,
  "\u2581say": 419,
  "\u2581love": 420,
  "du": 421,
  "wo": 422,
  "vo": 423,
  "pi": 424,
  "\u0448": 425,
  "\u2581oku": 426,
  "\u2581name": 427,
  "\u0437": 428,
  "\u2581because": 429,
  "q": 430,
  "\u2581am": 431,
  "\u2581\u0432": 432,
  "\u0433": 433,
  "\u2581see": 434,
  "\u2581ja": 435,
  "\u2581When": 436,
  "\u2581P": 437,
  "ze": 438,
  "\u2581yo": 439,
  "\u0434\u0430": 440,
  "\u2581Lord": 441,
  "\u2581just": 442,
  "\u2581D": 443,
  "\u2581g": 444,
  "\u3002": 445,
  "\u2581Sa": 446,
  "\u064a": 447,
  "\u00e9": 448,
  "fi": 449,
  "\u2581er": 450,
  "wi": 451,
  "\u00ed": 452,
  "\u2581al": 453,
  "the": 454,
  "\u2581need": 455,
  "\u2581world": 456,
  "\u2581Se": 457,
  "ir": 458,
  "\u2581first": 459,
  "\u2581fa": 460,
  "\u2581G": 461,
  "\u2581earth": 462,
  "\u043b\u0430": 463,
  "\u2581right": 464,
  "\u2581\u0443": 465,
  "\u2581unto": 466,
  "et": 467,
  "\u0442\u0430": 468,
  "ter": 469,
  "\u2581As": 470,
  "\u0634": 471,
  "\u2581take": 472,
  "nan": 473,
  "\u2581Paul": 474,
  "\u2581L": 475,
  "\u02bb": 476,
  "\u2581Ta": 477,
  "\u2581La": 478,
  "zo": 479,
  "\u2581\u0441": 480,
  "or": 481,
  "\u043d\u0435": 482,
  "kan": 483,
  "\u2581con": 484,
  "at": 485,
  "\u2581new": 486,
  "th": 487,
  "\u2581ge": 488,
  "\u2581tau": 489,
  "el": 490,
  "ten": 491,
  "\u2581nu": 492,
  "\u2581\u00bb": 493,
  "co": 494,
  "\u2581bo": 495,
  "tan": 496,
  "\u0432": 497,
  "\u2581vi": 498,
  "\u2581T": 499,
  "\u2581Ko": 500,
  "\u043b\u0438": 501,
  "\u2581children": 502,
  "yi": 503,
  "\u044f": 504,
  "\u0447": 505,
  "\u2581Why": 506,
  "\u2581\u06a9\u0647": 507,
  ".\"": 508,
  "ju": 509,
  "\u043c\u0430": 510,
  "\u2581must": 511,
  "\u121d": 512,
  "ji": 513,
  "\u2581years": 514,
  "\u2581ho": 515,
  "\u2581after": 516,
  "\u2581now": 517,
  "\u2581get": 518,
  "\u0648\u0647": 519,
  "\u0644": 520,
  "\u2581two": 521,
  "ngo": 522,
  "\u2581\u0626\u0647": 523,
  "\u2581ut": 524,
  "os": 525,
  "\u2581Christ": 526,
  "su": 527,
  "\u044b": 528,
  "\u0436": 529,
  "\u2581down": 530,
  "\u25813": 531,
  "\u2581That": 532,
  "\u2581Ne": 533,
  "ste": 534,
  "hu": 535,
  "ia": 536,
  "\u2581ny": 537,
  "jo": 538,
  "\u2581co": 539,
  "\u2581want": 540,
  "\u2581file": 541,
  "men": 542,
  "ver": 543,
  "\u2581\u0434\u0430": 544,
  "gu": 545,
  "\u2581\u0437\u0430": 546,
  "chi": 547,
  "\u2581v": 548,
  "un": 549,
  "\u2581Re": 550,
  "ndi": 551,
  "\u2581ver": 552,
  "B": 553,
  "\u2581Me": 554,
  "\u09cd": 555,
  "\u2581\u0627": 556,
  "\u2581w": 557,
  "\u2581pro": 558,
  "nya": 559,
  "\u2581being": 560,
  "\u2581\u062f\u0647": 561,
  "\u2581Li": 562,
  "(": 563,
  "\u2581Israel": 564,
  "ran": 565,
  "\u2581use": 566,
  "\u0f0b": 567,
  "\u2581Si": 568,
  "\u2581give": 569,
  "\u2581Ba": 570,
  "ur": 571,
  "am": 572,
  "um": 573,
  "\u2581against": 574,
  "\u1275": 575,
  "\u0161": 576,
  "vu": 577,
  "\u2581\u0644\u0647": 578,
  "\u2581don": 579,
  "\u2581z": 580,
  "\u258119": 581,
  "\u2581others": 582,
  "\u2581\u0628": 583,
  "lar": 584,
  "\u2581van": 585,
  "\u2581/": 586,
  "Name": 587,
  "\u2581ro": 588,
  "%": 589,
  "\u2581og": 590,
  "\u2581ana": 591,
  "\u2581De": 592,
  "cu": 593,
  "\u2581here": 594,
  "\u2581paper": 595,
  "ad": 596,
  "\u2581pag": 597,
  "\u120d": 598,
  "\u201c": 599,
  "\u062f\u0627": 600,
  "\u2581\u06fd": 601,
  "\u2581well": 602,
  "\u064f": 603,
  "\u0627": 604,
  "\u2581under": 605,
  "\u2581el": 606,
  "\u2581lu": 607,
  "D": 608,
  "\u2581Te": 609,
  "M": 610,
  "\u0101": 611,
  "\u2581An": 612,
  "\u043b\u0430\u0440": 613,
  "pu": 614,
  "\u2581fi": 615,
  "\u2581han": 616,
  "\u2581faka": 617,
  "\u2581para": 618,
  "\u043d\u044b": 619,
  "\u2581Pa": 620,
  "den": 621,
  "\u043a\u0430": 622,
  "\u2581F": 623,
  "\u2581faith": 624,
  "\u2581Ha": 625,
  "\u2581own": 626,
  "\u2581h": 627,
  "san": 628,
  "\u2581im": 629,
  "\u2581came": 630,
  "\u0442\u0438": 631,
  "\u2581\u043f\u043e": 632,
  "\u2581\u1362": 633,
  "\u2581kon": 634,
  "\u2581where": 635,
  "\u2581den": 636,
  "\u2581kan": 637,
  "ut": 638,
  "\u2581ak": 639,
  "\u0326": 640,
  "\u2581yi": 641,
  "id": 642,
  "\u2581atu": 643,
  "\u2581pu": 644,
  "\u2581ru": 645,
  "\u2581des": 646,
  "\u2581Mo": 647,
  "dan": 648,
  "T": 649,
  "\u2581Be": 650,
  "\u122d": 651,
  "\u2581used": 652,
  "\u043b\u0435": 653,
  "\u2581through": 654,
  "\u2581All": 655,
  "\u2581p": 656,
  "\u2581pi": 657,
  "tra": 658,
  "\u0441\u0430": 659,
  "\u043d\u043e": 660,
  "\u2581set": 661,
  "gen": 662,
  "lan": 663,
  "\u2581\u0645": 664,
  "ina": 665,
  "2": 666,
  "\u2581example": 667,
  "\u062f": 668,
  "\u09a8": 669,
  "\u2581son": 670,
  "\u2581family": 671,
  "\u2581very": 672,
  "han": 673,
  "\u2581av": 674,
  "\u2581another": 675,
  "\u2581qui": 676,
  "O": 677,
  "\u2581\u0410": 678,
  "\u2581upon": 679,
  "\u0643": 680,
  "\u2581ad": 681,
  "sti": 682,
  "\u2581sin": 683,
  "\u2581\u0627\u0644": 684,
  "\u2581Ku": 685,
  "\u2581spirit": 686,
  "\u2581Dios": 687,
  "\u2581H": 688,
  "\u044b\u043d": 689,
  "\u2581x": 690,
  "\u2581ed": 691,
  "\u2581let": 692,
  "\u2581nan": 693,
  "\u2581gi": 694,
  "F": 695,
  "\u2581pou": 696,
  "\u2581says": 697,
  "\u0432\u0430": 698,
  "\u2581might": 699,
  "\u2581\u0631\u0627": 700,
  "\u2581Christian": 701,
  "\u2581Mu": 702,
  "ana": 703,
  "mba": 704,
  "der": 705,
  "\u2581away": 706,
  "\u2581\u2035": 707,
  "\u00f3": 708,
  "\u2581\u00e0": 709,
  "\u2581back": 710,
  "\u2581great": 711,
  "\u0440\u0438": 712,
  "\u2581heart": 713,
  "aga": 714,
  "\u00fa": 715,
  "\u2581Kingdom": 716,
  "\u00fd": 717,
  "\u2581David": 718,
  "\u2581Then": 719,
  "\u0431": 720,
  "ita": 721,
  "aki": 722,
  "\u0642": 723,
  "\u2581folder": 724,
  "ment": 725,
  "\u2581\u043d\u0435": 726,
  "nd": 727,
  "\u2581f": 728,
  "\u2581find": 729,
  "\u2581Christians": 730,
  "\u2581place": 731,
  "\u258110": 732,
  "\u2581kg": 733,
  "tar": 734,
  "\u0930": 735,
  "\u2581\u0627\u0648\u0631": 736,
  "\u2581found": 737,
  "\u2581sang": 738,
  "ler": 739,
  "\u2581page": 740,
  "N": 741,
  "\u2581kuti": 742,
  "\u25815": 743,
  "\u0928": 744,
  "\u2581del": 745,
  "\u2581nou": 746,
  "\u2581mau": 747,
  "\u2581ve": 748,
  "\u2581til": 749,
  "\u2581pre": 750,
  "\u2581true": 751,
  "ak": 752,
  "\u2581think": 753,
  "\u2581iti": 754,
  "sh": 755,
  "\u25814": 756,
  "\u0259": 757,
  "\u2581mea": 758,
  "\u2581There": 759,
  "\u2581dan": 760,
  "\u2581fe": 761,
  "\u044c": 762,
  "\u2581among": 763,
  "\u258115": 764,
  "\u2581person": 765,
  "\u2581same": 766,
  "\u2581much": 767,
  "\u2581ber": 768,
  "\u2581Le": 769,
  "\u0915": 770,
  "\u2581\u2013": 771,
  "\u2581op": 772,
  "\u2581most": 773,
  "\u2581every": 774,
  "\u0576": 775,
  "tion": 776,
  "\u2581Da": 777,
  "\u2581\u0431\u0430": 778,
  "\u2581Witnesses": 779,
  "P": 780,
  "\u0932": 781,
  "\u2581der": 782,
  "\u2581become": 783,
  "\u2581Ya": 784,
  "\u043b\u043e": 785,
  "nda": 786,
  "\u2581\u0437": 787,
  "\u2581Ti": 788,
  "\u2581ji": 789,
  "zu": 790,
  "ty": 791,
  "G": 792,
  "\u2581each": 793,
  "\u2581words": 794,
  "\u2581Jehova": 795,
  "cha": 796,
  "\u056b": 797,
  "\u2581\u2022": 798,
  "\u2581om": 799,
  "H": 800,
  "\u2581part": 801,
  "\u04a3": 802,
  "\u2581between": 803,
  "\u2581cu": 804,
  "tor": 805,
  "\u2581che": 806,
  "dy": 807,
  "\u2581aba": 808,
  "\u2581truth": 809,
  "\u2581end": 810,
  "fu": 811,
  "\u2581His": 812,
  "\u2581show": 813,
  "em": 814,
  "\u2581nak": 815,
  "\u2581death": 816,
  "\u2581Is": 817,
  "\u064a\u0629": 818,
  "\u0442\u0435": 819,
  "\u2581wo": 820,
  "\u0650": 821,
  "\u00df": 822,
  "4": 823,
  "\u2581ir": 824,
  "\u0440\u043e": 825,
  "\u2581Ki": 826,
  "\u2581laj": 827,
  "\u25813:": 828,
  "\u2581given": 829,
  "\u2581Ni": 830,
  "\u015f": 831,
  "\u2581\"%": 832,
  "\u2581house": 833,
  "\u2581il": 834,
  "\u2581vaka": 835,
  "\u0924": 836,
  "\u0632": 837,
  "\u2581\u0964": 838,
  "\u00ea": 839,
  "\u043c\u0435": 840,
  "3": 841,
  "\u2581\u0647\u0647": 842,
  "\u2581whom": 843,
  "\u1293": 844,
  "\u2581put": 845,
  "\u2581congregation": 846,
  "\u2581\u062a\u0648": 847,
  "\u17d2": 848,
  "\u2581ei": 849,
  "\u2581too": 850,
  "\u0627\u0646": 851,
  "fe": 852,
  "\u2581Mi": 853,
  "\u2581Po": 854,
  "\u0629": 855,
  "\u2581\u0645\u0646": 856,
  "que": 857,
  "eb": 858,
  "\u2581les": 859,
  "\u2581information": 860,
  "\u2581hand": 861,
  "\u2581\u0442\u0430": 862,
  "ngu": 863,
  "\u2581Can": 864,
  "che": 865,
  "\u09f0": 866,
  "\u2581'%": 867,
  "\u00e3": 868,
  "\u2581word": 869,
  "\u2581ndi": 870,
  "\u2581never": 871,
  "ven": 872,
  "\u0442\u043e": 873,
  "\u2581ch": 874,
  "ry": 875,
  "\u2581message": 876,
  "\u2581jo": 877,
  "\u2581\u00e1": 878,
  "\u2581faa": 879,
  "paper": 880,
  "\u2581kai": 881,
  "\u06c1": 882,
  "\u2581au": 883,
  "\u2581non": 884,
  "\u2581eo": 885,
  "\u043e": 886,
  "\u2581Ra": 887,
  "ban": 888,
  "ine": 889,
  "\u2581iya": 890,
  "\u2581Ja": 891,
  "\u0f42": 892,
  "\u2581She": 893,
  "\u2581keep": 894,
  "\u2581ama": 895,
  "1": 896,
  "\u2581\u1021": 897,
  "\u2581\u0432\u0430": 898,
  "n\u00e9": 899,
  "\u2581days": 900,
  "\u2581V": 901,
  "\u093e": 902,
  "\u06a9": 903,
  "ria": 904,
  "\u0105": 905,
  "\u00e4": 906,
  "ul": 907,
  "\u2581New": 908,
  "\u25812:": 909,
  "\u2581\u0646\u0647": 910,
  "ndo": 911,
  "\u1235": 912,
  "\u2581som": 913,
  "\u2581Bu": 914,
  "\u2581ones": 915,
  "\u2581My": 916,
  "\u2581without": 917,
  "V": 918,
  "\u043c\u0438": 919,
  "\u2581spiritual": 920,
  "\u0628": 921,
  "\u0434\u0438": 922,
  "\u2581Di": 923,
  "ngi": 924,
  "lla": 925,
  "\u0646\u062f": 926,
  "mbo": 927,
  "\u2581why": 928,
  "\u2581while": 929,
  "\u2581system": 930,
  "nde": 931,
  "\u06cc\u0647": 932,
  "\u2581tal": 933,
  "\u00e0": 934,
  "len": 935,
  "\u2581sing": 936,
  "\u2581\u0589": 937,
  "\u0627\u062a": 938,
  "\u04d9": 939,
  "U": 940,
  "\u2581human": 941,
  "\u2581R": 942,
  "\u2581ju": 943,
  "\u2581believe": 944,
  "\u25817": 945,
  "\u2581ena": 946,
  "\u25816": 947,
  "\u2581land": 948,
  "\u2581open": 949,
  "\u2581\u0418": 950,
  "\u2581\u1361": 951,
  "min": 952,
  "\u2581long": 953,
  "\u2581zi": 954,
  "\u00e8": 955,
  "),": 956,
  "\u2581thou": 957,
  "\u043a\u0438": 958,
  "\u043e\u043d": 959,
  "\u2581On": 960,
  "\u2581\u0421": 961,
  "nye": 962,
  "\u12ed": 963,
  "\u2581year": 964,
  "\u548c": 965,
  "\u2581John": 966,
  "\u0646\u0649": 967,
  "\u09b0": 968,
  "\u2581important": 969,
  "\u2581ce": 970,
  "\u258112": 971,
  "\u2581times": 972,
  "\u0434\u0435": 973,
  "\u0444": 974,
  "\u2581gu": 975,
  "\u2581sent": 976,
  "\u2581brothers": 977,
  "\u2581means": 978,
  "\u044e": 979,
  "\u2581number": 980,
  "\u0434\u0430\u043d": 981,
  "\u1265": 982,
  "\u2581X": 983,
  "\u2581Lo": 984,
  "ol": 985,
  "\u0648\u0646": 986,
  "tt": 987,
  "5": 988,
  "\u2581por": 989,
  "\u2581\u043e": 990,
  "\u2581saying": 991,
  "wu": 992,
  "\u2581today": 993,
  "\u2581es": 994,
  "\u06cc\u0627\u0646": 995,
  "ren": 996,
  "qa": 997,
  "\u2581bwa": 998,
  "ck": 999,
  "ner": 1000,
  "\u2581One": 1001,
  "\u2581himself": 1002,
  "\u2581med": 1003,
  "\u1793": 1004,
  "\u2581nor": 1005,
  "\u2581\u0622\u06be\u064a": 1006,
  "\u4e86": 1007,
  "\u2581nag": 1008,
  "Y": 1009,
  "\u25811:": 1010,
  "\u2581went": 1011,
  "\u00f5": 1012,
  "\u2581again": 1013,
  "\u258120": 1014,
  "shi": 1015,
  "\u2581fo": 1016,
  "\u2581Satan": 1017,
  "\u0639": 1018,
  "\u25814:": 1019,
  "\u2581\u0435": 1020,
  "\u13b5": 1021,
  "\u2581order": 1022,
  "ua": 1023,
  "\u2581ag": 1024,
  "\u2581At": 1025,
  "\u10e1": 1026,
  "\u0947": 1027,
  "\u2581\u062a\u0647": 1028,
  "\u2581called": 1029,
  "\u2581ek": 1030,
  "\u2581three": 1031,
  "\u2581feel": 1032,
  "\u2581t\u00eb": 1033,
  "\u2581het": 1034,
  "\u0cb0": 1035,
  "tur": 1036,
  "\u2581States": 1037,
  "\u09c7": 1038,
  "\u2581Wa": 1039,
  "nt": 1040,
  "\u2581Atua": 1041,
  "\u2581\u043a": 1042,
  "\u2581Could": 1043,
  "\u0442\u044b": 1044,
  "\u2581European": 1045,
  "tha": 1046,
  "sto": 1047,
  "\u25818": 1048,
  "gan": 1049,
  "\u2581(_": 1050,
  "mbi": 1051,
  "\u0430\u043d": 1052,
  "\u2581ara": 1053,
  "\u093f": 1054,
  "rin": 1055,
  "\u0437\u0430": 1056,
  "\u043c\u043e": 1057,
  "\u2581ap": 1058,
  "\u2581\u0646": 1059,
  "\u00fc": 1060,
  "\u25811,": 1061,
  "\u0a30": 1062,
  "\u2581zo": 1063,
  "\u2581\u0627\u0644\u0645": 1064,
  "\u2581Commission": 1065,
  "\u2581Peter": 1066,
  "\u2581\u0626\u0627": 1067,
  "\u2581\u06a9\u06d2": 1068,
  "\u2581\u0441\u043e": 1069,
  "\u0902": 1070,
  "\u2581Bi": 1071,
  "\u2581Je": 1072,
  "\u2581yang": 1073,
  "\u0441\u0435": 1074,
  "\u2581going": 1075,
  "\u2581\u043a\u0438": 1076,
  "\u2581Yehova": 1077,
  "\u2581kwa": 1078,
  "ah": 1079,
  "\u0f7c": 1080,
  "\u10d8": 1081,
  "\u0942": 1082,
  "\u25815:": 1083,
  "ek": 1084,
  "\u2581W": 1085,
  "\u2581\u043a\u0430": 1086,
  "\u06a9\u0647": 1087,
  "\u025b": 1088,
  "\u2581king": 1089,
  "\u2581still": 1090,
  "nge": 1091,
  "mwe": 1092,
  "\u2581vo": 1093,
  "\u2581\u0644": 1094,
  "kin": 1095,
  "kwa": 1096,
  "\u2581both": 1097,
  "\u12f5": 1098,
  "\u2581By": 1099,
  "\u2581oo": 1100,
  "\u2581\u0441\u0435": 1101,
  "\u2581image": 1102,
  "\u2581young": 1103,
  "\u2581\u06a9\u064a": 1104,
  "\u2581fai": 1105,
  "\u2581Ke": 1106,
  "\u044b\u0440": 1107,
  "\u2581told": 1108,
  "\u0b3e": 1109,
  "\u2581gave": 1110,
  "qui": 1111,
  "\u2581home": 1112,
  "\u0633\u062a": 1113,
  "\u2581\u00e9": 1114,
  "\u2581got": 1115,
  "\u2581\u0434\u043e": 1116,
  "\u2581par": 1117,
  "\u2581Article": 1118,
  "\u2581view": 1119,
  "\u2581*": 1120,
  "\u2581af": 1121,
  "\u2581Let": 1122,
  "\u00f2": 1123,
  "\u2581En": 1124,
  "\u2581power": 1125,
  "R": 1126,
  "\u2581doing": 1127,
  "\u2581parents": 1128,
  "\u2581Our": 1129,
  "\u0f60": 1130,
  "\u043b\u044b": 1131,
  "\u2581met": 1132,
  "\u2581\u062c\u0648": 1133,
  "\u2581father": 1134,
  "\u2581read": 1135,
  "\u0f66": 1136,
  "ton": 1137,
  "\u0107": 1138,
  "sia": 1139,
  "\u0627\u0644": 1140,
  "im": 1141,
  "\u2581off": 1142,
  "\u2581\u13a0\u13b4": 1143,
  "\u2581pri": 1144,
  "\u0446": 1145,
  "\u2581Ca": 1146,
  "\u2581service": 1147,
  "\u2581\u06c1\u06d2": 1148,
  "\u092e": 1149,
  "\u2581something": 1150,
  "lin": 1151,
  "lik": 1152,
  "\u25819": 1153,
  "\u2581ae": 1154,
  "\u258130": 1155,
  "\u2581Moses": 1156,
  "t\u00e9": 1157,
  "sin": 1158,
  "tre": 1159,
  "\u0938": 1160,
  "\u067e": 1161,
  "\u2581\u062a": 1162,
  "L": 1163,
  "\u2581\u062f\u0631": 1164,
  "\u2581bann": 1165,
  "\u2581themselves": 1166,
  "\u017e": 1167,
  "lle": 1168,
  "\u2581ala": 1169,
  "n\u00ed": 1170,
  "\u2581p\u00e5": 1171,
  "\u13d7": 1172,
  "\u2581together": 1173,
  "\u25816:": 1174,
  "\u00f4": 1175,
  "au": 1176,
  "\u2581Father": 1177,
  "\u2581cha": 1178,
  "\u2581kita": 1179,
  "\u2581\u0423": 1180,
  "\u2581yn": 1181,
  "\u04d7": 1182,
  "yn": 1183,
  "\u2581Read": 1184,
  "\u2581ao": 1185,
  "\u2581bring": 1186,
  "tta": 1187,
  "\u06be": 1188,
  "sha": 1189,
  "per": 1190,
  "\u043a\u043e": 1191,
  "\u2581old": 1192,
  "\u2581est": 1193,
  "\u2581done": 1194,
  "\u0c02": 1195,
  "xa": 1196,
  "\u258118": 1197,
  "ts": 1198,
  "\u2581took": 1199,
  "\u0644\u0627": 1200,
  "\u2581really": 1201,
  "\u2581though": 1202,
  "\u13a2": 1203,
  "\u2581\u044f": 1204,
  "\u2581following": 1205,
  "\u017c": 1206,
  "\u2581learn": 1207,
  "\u0142": 1208,
  "\u2581cannot": 1209,
  "\u2581\u1260": 1210,
  "\u0995": 1211,
  "ire": 1212,
  "\u2581Word": 1213,
  "\u2581\u13a4": 1214,
  "\u2581\u12e8": 1215,
  "\u2581\u06a9\u06cc": 1216,
  "K": 1217,
  "\u0433\u043e": 1218,
  "ers": 1219,
  "\u2581Go": 1220,
  "dzi": 1221,
  "\u2581tell": 1222,
  "\u2581full": 1223,
  "cho": 1224,
  "\u2581However": 1225,
  "\u13db": 1226,
  "\u05df": 1227,
  "\u09c1": 1228,
  "yan": 1229,
  "\u2581J": 1230,
  "\u662f": 1231,
  "\u2581last": 1232,
  "\u2581ou": 1233,
  "tin": 1234,
  "\u0447\u0435": 1235,
  "\u00eb": 1236,
  "\u2581tatou": 1237,
  "mbe": 1238,
  "ot": 1239,
  "\u00f1": 1240,
  "\u2581peace": 1241,
  "\u13c2": 1242,
  "qu": 1243,
  "\u201d": 1244,
  "\u2581Vi": 1245,
  "\u2581Now": 1246,
  "\u2581\u043c\u0430": 1247,
  "ise": 1248,
  "\u2581during": 1249,
  "\u2581Ri": 1250,
  "\u2581bir": 1251,
  "\u044b\u043b": 1252,
  "\u2581\u1ecd": 1253,
  "\u2581\u0641\u064a": 1254,
  "\u2581worship": 1255,
  "\u2581left": 1256,
  "\u04d5": 1257,
  "\u2581xa": 1258,
  "\u0580": 1259,
  "ile": 1260,
  "\u2581Yes": 1261,
  "\u0ca6": 1262,
  "\u2581study": 1263,
  "\u2581live": 1264,
  "\u12cd": 1265,
  "\u04d1": 1266,
  "\u0430\u0440": 1267,
  "ai": 1268,
  "tia": 1269,
  "\u2581look": 1270,
  "\u2581Ho": 1271,
  "\u0440\u0435": 1272,
  "\u2581Hi": 1273,
  "\u2581sa\u00df": 1274,
  "ning": 1275,
  "ske": 1276,
  "\u2581little": 1277,
  "\u2581Su": 1278,
  "\u2581support": 1279,
  "kon": 1280,
  "\u00f1a": 1281,
  "\u0f72": 1282,
  "\u2581Co": 1283,
  "\u0f66\u0f0b": 1284,
  "\u0441\u0442": 1285,
  "\u258111": 1286,
  "\u2581course": 1287,
  "\u2581law": 1288,
  "\u0a47": 1289,
  "\u13c5": 1290,
  "\u2581wife": 1291,
  "\u2581hu": 1292,
  "\u0631\u0627": 1293,
  "\u0447\u0438": 1294,
  "\u0d46": 1295,
  "\u2581ug": 1296,
  "\u2581close": 1297,
  "\u120b": 1298,
  "W": 1299,
  "\u2581\u043c\u0435": 1300,
  "\u2581Tu": 1301,
  "\u2581data": 1302,
  "\u2581Pi": 1303,
  "\u0645\u0627\u0646": 1304,
  "\u2581far": 1305,
  "\u2581um": 1306,
  "ite": 1307,
  "\u2581t\u00f3": 1308,
  "\u0447\u0430": 1309,
  "\u2581cho": 1310,
  "\u04ab": 1311,
  "\u10d0": 1312,
  "tsa": 1313,
  "\u2581\u1218": 1314,
  "\u2581\u043e\u0442": 1315,
  "\u2581kua": 1316,
  "\u0433\u0435": 1317,
  "ene": 1318,
  "\u2581em": 1319,
  "\u00e2": 1320,
  "\u2581und": 1321,
  "\u04af": 1322,
  "\u0940": 1323,
  "\u2581aka": 1324,
  "\u2581able": 1325,
  "\u2581thy": 1326,
  "xi": 1327,
  "bal": 1328,
  "\u2581tan": 1329,
  "\u0abe": 1330,
  "r\u00e1": 1331,
  "\u2581tra": 1332,
  "\u2581vu": 1333,
  "\u0434\u044b": 1334,
  "\u0f74": 1335,
  "son": 1336,
  "\u0433\u0430\u043d": 1337,
  "ster": 1338,
  "\u2581Bo": 1339,
  "\u2581always": 1340,
  "\u2581thee": 1341,
  "\u2581ua": 1342,
  "\u2581Your": 1343,
  "\u044a": 1344,
  "ken": 1345,
  "\u0cbe": 1346,
  "ation": 1347,
  "\u2581city": 1348,
  "\u2581Show": 1349,
  "dir": 1350,
  "\u2581\u06a9\u0648": 1351,
  "\u2581better": 1352,
  "\u062f\u0647": 1353,
  "\u2581Al": 1354,
  "\u179a": 1355,
  "\u2581det": 1356,
  "\u2581knowledge": 1357,
  "\u0431\u0430": 1358,
  "\u0c28": 1359,
  "\u2581therefore": 1360,
  "ski": 1361,
  "tro": 1362,
  "nder": 1363,
  "\u2581\u043c\u043e": 1364,
  "ky": 1365,
  "\u2581until": 1366,
  "\u2581Jerusalem": 1367,
  "\u2581nei": 1368,
  "\u2581\u0441\u0430": 1369,
  "\u5728": 1370,
  "\u2581text": 1371,
  "\u2581ask": 1372,
  "\u2581\u0b85": 1373,
  "\u2581una": 1374,
  "pp": 1375,
  "\u2581maka": 1376,
  "ci\u00f3n": 1377,
  "\u0acb": 1378,
  "\u00e6": 1379,
  "ali": 1380,
  "\u2581Ga": 1381,
  "\u05d8": 1382,
  "ber": 1383,
  "\u2581\u0442\u0435": 1384,
  "\u0cc1": 1385,
  "\u06d2": 1386,
  "ona": 1387,
  "\u2581disciples": 1388,
  "fer": 1389,
  "\u044b\u043c": 1390,
  "\u2581com": 1391,
  "\u2581hope": 1392,
  "\u2581r": 1393,
  "\u0ca8": 1394,
  "\u2581thing": 1395,
  "nie": 1396,
  "\u2581mind": 1397,
  "\u2581\u062c\u064a": 1398,
  "\u2581Yahweh": 1399,
  "\u09b2": 1400,
  "\u0941": 1401,
  "\u2581water": 1402,
  "\u049b": 1403,
  "\u2581child": 1404,
  "\u2581\u0442\u043e": 1405,
  "ie": 1406,
  "\u2581Who": 1407,
  "pan": 1408,
  "\u258125": 1409,
  "\u2581LORD": 1410,
  "\u2581book": 1411,
  "\u2581Ge": 1412,
  "\u2581\u00f2": 1413,
  "\u2581mata": 1414,
  "\u2581Z": 1415,
  "\u2581era": 1416,
  "\u0568": 1417,
  "\u2581vei": 1418,
  "\u2581holy": 1419,
  "\u2581brother": 1420,
  "tes": 1421,
  "\u2581faithful": 1422,
  "\u2581saw": 1423,
  "\u2581kau": 1424,
  "\u062e": 1425,
  "\u2581apostle": 1426,
  "\u2581\u05d4": 1427,
  "\u2581brought": 1428,
  "ic": 1429,
  "\u2581Name": 1430,
  "\u00e7": 1431,
  "\u2581Con": 1432,
  "\u2581\u0633\u06d2": 1433,
  "\u0637": 1434,
  "\u2581women": 1435,
  "\u0435\u043d": 1436,
  "\u0448\u0430": 1437,
  "\u2581\u0906": 1438,
  "\u2581having": 1439,
  "ring": 1440,
  "\u1290": 1441,
  "\u2581wi": 1442,
  "\u2581Some": 1443,
  "\u09ac": 1444,
  "\u2581Are": 1445,
  "\u13a9": 1446,
  "\u1208": 1447,
  "\u092a": 1448,
  "\u2581servants": 1449,
  "\u0432\u043e": 1450,
  "\u03bd": 1451,
  "\u0628\u0647": 1452,
  "\u091f": 1453,
  "\u2581best": 1454,
  "\u0939": 1455,
  "\u0435\u0442": 1456,
  "\u2581ever": 1457,
  "\u2581face": 1458,
  "\u2581Pe": 1459,
  "The": 1460,
  "od": 1461,
  "\u258114": 1462,
  "\u2581fear": 1463,
  "\u0932\u093e": 1464,
  "\u2581Not": 1465,
  "\u2581\u043f\u0440\u043e": 1466,
  "nn": 1467,
  "land": 1468,
  "\u2581yet": 1469,
  "\u2581n\u00ed": 1470,
  "isi": 1471,
  "\u2581\u13a0": 1472,
  "\u0935": 1473,
  "\u2581Y": 1474,
  "r\u00e9": 1475,
  "\u0b4d": 1476,
  "\u1228": 1477,
  "ling": 1478,
  "\u2581Son": 1479,
  "\u2581bar": 1480,
  "\u0301": 1481,
  "\u0ab0": 1482,
  "\u09a4": 1483,
  "\u0647\u0627": 1484,
  "\u2581became": 1485,
  "\u2581seen": 1486,
  "ben": 1487,
  "\u2581Pro": 1488,
  "\u2581different": 1489,
  "\u2581sure": 1490,
  "\u0561\u0580": 1491,
  "\u0438\u043b": 1492,
  "\u2581news": 1493,
  "tte": 1494,
  "\u2581Oh": 1495,
  "\u0db8": 1496,
  "\u2581\u0431\u0435\u0440": 1497,
  "\u2581After": 1498,
  "\u2581Abraham": 1499,
  "\u09bf": 1500,
  "\u2581\u0442": 1501,
  "\u2581files": 1502,
  "\u2581iz": 1503,
  "\u2581Ut": 1504,
  "\u258116": 1505,
  "thi": 1506,
  "fo": 1507,
  "\u043b\u0430\u043d": 1508,
  "\u2581\u0628\u06c6": 1509,
  "\u0c35": 1510,
  "\u2581list": 1511,
  "mas": 1512,
  "\u5e74": 1513,
  "\u2581\u0627\u0646": 1514,
  "\u05e4": 1515,
  "\u2581heaven": 1516,
  "\u03bb": 1517,
  "\u2581\u0645\u06cc\u06ba": 1518,
  "\u0a28": 1519,
  "\u03c5": 1520,
  "\u2581serve": 1521,
  "\u044b\u0448": 1522,
  "\u062d": 1523,
  "\u2581os": 1524,
  "\u00f9": 1525,
  "\u2581aku": 1526,
  "\u0932\u0947": 1527,
  "\u2581Member": 1528,
  "\u13c3": 1529,
  "\u092f": 1530,
  "\u2581\u0627\u0627\u0644\u0644\u0647": 1531,
  "\u0173": 1532,
  "\u2581\u104b": 1533,
  "\u2581\u0905": 1534,
  "ala": 1535,
  "ska": 1536,
  "\u2581United": 1537,
  "\u043a\u0443": 1538,
  "\u2581Or": 1539,
  "\u0119": 1540,
  "\u2581ex": 1541,
  "@": 1542,
  "l\u00e9": 1543,
  "\u2581case": 1544,
  "\u0578\u0582\u0574": 1545,
  "\u2581ata": 1546,
  "ser": 1547,
  "\u2581\u13be\u13cd\u13a9": 1548,
  "\u258124": 1549,
  "\u2581\u0431\u0443": 1550,
  "\u03c4": 1551,
  "\u130d": 1552,
  "\u2581car": 1553,
  "\u13af": 1554,
  "\u0924\u093e": 1555,
  "\u13be": 1556,
  "\u0433\u04d9": 1557,
  "ion": 1558,
  "\u2581night": 1559,
  "ab": 1560,
  "\u0635": 1561,
  "\u2581\u0431": 1562,
  "hia": 1563,
  "\u25812.": 1564,
  "\u0964": 1565,
  "\u2581Va": 1566,
  "uta": 1567,
  "\u0435\u043c": 1568,
  "\u2581free": 1569,
  "\u0437\u0438": 1570,
  "\u2581\u0e97\u0eb5\u0ec8": 1571,
  "\u0648\u0644": 1572,
  "\u258117": 1573,
  "sion": 1574,
  "\u2581already": 1575,
  "\u09ae": 1576,
  "\u12a5": 1577,
  "\u0113": 1578,
  "\u0dc0": 1579,
  "\u0686": 1580,
  "\u2581These": 1581,
  "\u1273": 1582,
  "yu": 1583,
  "\u2581Council": 1584,
  "\u2581...": 1585,
  "\u2581window": 1586,
  "\u2581mar": 1587,
  "\u0da7": 1588,
  "\u2581certain": 1589,
  "\u2581care": 1590,
  "\u0d2f": 1591,
  "nia": 1592,
  "nik": 1593,
  "ntu": 1594,
  "\u2581wrote": 1595,
  "\u2581With": 1596,
  "\u2581oyo": 1597,
  "\u00e5": 1598,
  "by": 1599,
  "\u2581war": 1600,
  "xe": 1601,
  "\u2581ilo": 1602,
  "\u010di": 1603,
  "\u2581Du": 1604,
  "ger": 1605,
  "\u2581\u6211": 1606,
  "\u2581account": 1607,
  "\u2581var": 1608,
  "\u2581!": 1609,
  "\u2581mean": 1610,
  "\u2581heard": 1611,
  "\u2581next": 1612,
  "\u0627\u06cc": 1613,
  "mos": 1614,
  "\u0438\u043d": 1615,
  "\u2581dia": 1616,
  "\u2581ayeke": 1617,
  "\u2581\u041e": 1618,
  "\u0c30": 1619,
  "\u06aa": 1620,
  "ks": 1621,
  "\u2581ways": 1622,
  "\u2581possible": 1623,
  "\u2581Za": 1624,
  "bar": 1625,
  "\u2581\u04bb\u04d9\u043c": 1626,
  "\u2581personal": 1627,
  "\u0493\u0430": 1628,
  "\u2581within": 1629,
  "\u2581\u306e": 1630,
  "\u2581call": 1631,
  "\u03b9": 1632,
  "\u03b3": 1633,
  "tik": 1634,
  "\u2581\u062e\u0648\u0627": 1635,
  "\u2581ona": 1636,
  "idh": 1637,
  "\u05e2": 1638,
  "\u2581around": 1639,
  "\u2581living": 1640,
  "\u258113": 1641,
  "\u2581\u062f": 1642,
  "\u2581\u0627\u0644\u0644\u0647": 1643,
  "\u1308": 1644,
  "\u2581later": 1645,
  "\u0430\u0442": 1646,
  "\u2581Fa": 1647,
  "\u09aa": 1648,
  "\u0441\u0438": 1649,
  "ate": 1650,
  "\u2581los": 1651,
  "able": 1652,
  "\u2581Ro": 1653,
  "\u2581\u0422": 1654,
  "\u25811.": 1655,
  "\u2581agus": 1656,
  "ap": 1657,
  "Comment": 1658,
  "tsi": 1659,
  "\u2581change": 1660,
  "\u2581fu": 1661,
  "\u2581high": 1662,
  "\u2581asked": 1663,
  "l\u00e1": 1664,
  "\u2581\u043a\u043e": 1665,
  "\u2581\u0445\u0430": 1666,
  "\u13d3": 1667,
  "\u2581gen": 1668,
  "\u2581often": 1669,
  "\u2581result": 1670,
  "\u043d\u0456": 1671,
  "\u2581understand": 1672,
  "k\u00df": 1673,
  "\u0440\u044b": 1674,
  "\u2581article": 1675,
  "\u2581\u043c\u0438": 1676,
  "isa": 1677,
  "\u2581Jo": 1678,
  "\u2581selected": 1679,
  "\u0dbb": 1680,
  "\u064a\u0646": 1681,
  "\u2581\u0627\u0632": 1682,
  "\u0442\u0430\u0440": 1683,
  "\u2581mag": 1684,
  "ada": 1685,
  "\u0f58": 1686,
  "\u2581Regulation": 1687,
  "\u0646\u0627": 1688,
  "\u2581sam": 1689,
  "\u2581making": 1690,
  "\u2581mother": 1691,
  "\u2581kar": 1692,
  "des": 1693,
  "\u3001": 1694,
  "\u00f0": 1695,
  "\u2581nya": 1696,
  "\u0584": 1697,
  "\u2581dead": 1698,
  "\u043e\u0432": 1699,
  "\u043e\u043c": 1700,
  "\u0131": 1701,
  "\u2581iyo": 1702,
  "tal": 1703,
  "\u2581\u0447": 1704,
  "\u2581value": 1705,
  "ik": 1706,
  "ndu": 1707,
  "\u2581taken": 1708,
  "\u2581respect": 1709,
  "dza": 1710,
  "\u2581f\u00f6r": 1711,
  "\u2581fact": 1712,
  "\u2581p\u00e9": 1713,
  "\u2581Ye": 1714,
  "\u0f7a": 1715,
  "\u0e23": 1716,
  "ux": 1717,
  "\u2581turn": 1718,
  "\u2581eyes": 1719,
  "\u0432\u0438": 1720,
  "00": 1721,
  "\u2581evil": 1722,
  "\u06d0": 1723,
  "\u2581nothing": 1724,
  "\u2581t\u00ed": 1725,
  "\u0e19": 1726,
  "est": 1727,
  "\u2581consider": 1728,
  "\u2581Un": 1729,
  "ama": 1730,
  "\u0f62": 1731,
  "\u2581Ar": 1732,
  "kwe": 1733,
  "\u2581ora": 1734,
  "\u2581sy": 1735,
  "\u045e": 1736,
  "oni": 1737,
  "\u2581\u201e": 1738,
  "\u03bc": 1739,
  "6": 1740,
  "\u0437\u044b": 1741,
  "\u2581\u0646\u0627": 1742,
  "\u043b\u044c": 1743,
  "tus": 1744,
  "\u2581\u0645\u06cc": 1745,
  "gar": 1746,
  "\u0b30": 1747,
  "\u2581ser": 1748,
  "\u1ecd": 1749,
  "up": 1750,
  "\u2581har": 1751,
  "\u2581\u0915": 1752,
  "\u2581och": 1753,
  "bra": 1754,
  "\u0c28\u0c3f": 1755,
  "):": 1756,
  "\u2581speak": 1757,
  "\u2581\u0431\u043e\u043b": 1758,
  "\u064e": 1759,
  "\u2581\u0567": 1760,
  "\u25814.": 1761,
  "\u2581including": 1762,
  "ssa": 1763,
  "las": 1764,
  "one": 1765,
  "nes": 1766,
  "\u2581woman": 1767,
  "\u2581%1": 1768,
  "\u2581kuma": 1769,
  "\u2581kas": 1770,
  "bil": 1771,
  "\u0cbf": 1772,
  "\u0c28\u0c41": 1773,
  "\u2581isa": 1774,
  "lig": 1775,
  "\u2581\u0628\u0631": 1776,
  "\u2581body": 1777,
  "\u00bb": 1778,
  "\u010d": 1779,
  "sen": 1780,
  "\u1798": 1781,
  "\u2581Nu": 1782,
  "\u0a40": 1783,
  "\u2581ira": 1784,
  "\u05d7": 1785,
  "\u2581wrong": 1786,
  "\u2581Picture": 1787,
  "\u0c15\u0c41": 1788,
  "\u2581available": 1789,
  "\u2581point": 1790,
  "ron": 1791,
  "\u0440\u0443": 1792,
  "\u2581\u067e": 1793,
  "\u0a24": 1794,
  "\u0c32": 1795,
  "\u2581\u067e\u0631": 1796,
  "\u17bb": 1797,
  "ira": 1798,
  "\u2581\u0938": 1799,
  "\u2581reason": 1800,
  "\u0645\u0627": 1801,
  "ini": 1802,
  "sch": 1803,
  "\u2581ob": 1804,
  "\u2581ministry": 1805,
  "\u2581Open": 1806,
  "\u12eb": 1807,
  "era": 1808,
  "\u2581nie": 1809,
  "\u09cb": 1810,
  "\u2581\u0c85": 1811,
  "\u2581control": 1812,
  "ang": 1813,
  "\u2581group": 1814,
  "aj": 1815,
  "\u10dd": 1816,
  "\u2581type": 1817,
  "\u2581Well": 1818,
  "\u0641": 1819,
  "ac": 1820,
  "ig": 1821,
  "\u0a32": 1822,
  "\u2581public": 1823,
  "\u2581\u00ec": 1824,
  "\u0443\u0440": 1825,
  "\u2581light": 1826,
  "\u2581\u06a9\u06c1": 1827,
  "\u2581future": 1828,
  "\u2581\u062a\u0627": 1829,
  "\u1218": 1830,
  "\u091a": 1831,
  "\u2581\u062c\u0627": 1832,
  "kar": 1833,
  "\u2581ini": 1834,
  "\u122b": 1835,
  "\u2581\u12a3": 1836,
  "t\u00e1": 1837,
  "\u043f\u0430": 1838,
  "\u2581ratou": 1839,
  "\u2581\u12a0": 1840,
  "\u063a": 1841,
  "\u2581\u0915\u0947": 1842,
  "\u2581began": 1843,
  "\u2581att": 1844,
  "nta": 1845,
  "sz": 1846,
  "\u179f": 1847,
  "ud": 1848,
  "ach": 1849,
  "\u0561\u0576": 1850,
  "\u2581tama": 1851,
  "\u0bb5": 1852,
  "\u03c7": 1853,
  "\u2581\u0434": 1854,
  "\u2581whether": 1855,
  "\u06b5": 1856,
  "\u094d": 1857,
  "\u4eba": 1858,
  "\u0926": 1859,
  "\u062b": 1860,
  "\u2581cause": 1861,
  "\u0e21": 1862,
  "\u2581\u0144": 1863,
  "\u00ee": 1864,
  "tas": 1865,
  "\u0442\u0435\u0440": 1866,
  "ble": 1867,
  "Z": 1868,
  "\u2581error": 1869,
  "\u03cc": 1870,
  "nje": 1871,
  "\u2581nos": 1872,
  "op": 1873,
  "\u2581lan": 1874,
  "\u2581gui": 1875,
  "\u2581\u0436\u0430": 1876,
  "\u2581provided": 1877,
  "\u2581tin": 1878,
  "\u2581according": 1879,
  "\u2581follow": 1880,
  "\u0627\u0631": 1881,
  "\u05d4": 1882,
  "\u0cb2": 1883,
  "les": 1884,
  "pen": 1885,
  "nis": 1886,
  "\u0f56": 1887,
  "\u2581mana": 1888,
  "for": 1889,
  "\u2581known": 1890,
  "\u0c2f": 1891,
  "\u04a1": 1892,
  "\u2581preaching": 1893,
  "\u2581bwe": 1894,
  "\u2581kind": 1895,
  "\u2581blood": 1896,
  "sk": 1897,
  "\u0430\u0440\u0430": 1898,
  "\u00f8": 1899,
  "\u0648\u06ba": 1900,
  "k\u00e9": 1901,
  "\u0263": 1902,
  "r\u00eb": 1903,
  "\u13c1": 1904,
  "\u2581ano": 1905,
  "\u258131": 1906,
  "lia": 1907,
  "\u0442\u04d9": 1908,
  "uma": 1909,
  "\u2581lix": 1910,
  "\u2581\u064a": 1911,
  "una": 1912,
  "\u0646\u0647": 1913,
  "\u2581\u0418\u0435\u0433\u043e\u0432\u0430": 1914,
  "\u2581\u1295": 1915,
  "\u2581Ver": 1916,
  "\u0d4d": 1917,
  "\u2581Him": 1918,
  "\u1260": 1919,
  "mat": 1920,
  "\u2581country": 1921,
  "EC": 1922,
  "\u4e0d": 1923,
  "\u2581hear": 1924,
  "\u2581matter": 1925,
  "\u2581od": 1926,
  "\u2581food": 1927,
  "cia": 1928,
  "\u0646\u0649\u06ad": 1929,
  "iti": 1930,
  "mpa": 1931,
  "\u13a6": 1932,
  "\u0441\u044c": 1933,
  "mer": 1934,
  "\u2581th": 1935,
  "\u094b": 1936,
  "\u09be": 1937,
  "\u06bb": 1938,
  "\u2581--": 1939,
  "let": 1940,
  "\u0928\u0947": 1941,
  "\u2581\u0628\u0627": 1942,
  "\u2581Gu": 1943,
  "\u2581present": 1944,
  "\u2581El": 1945,
  "\u2581xi": 1946,
  "ray": 1947,
  "\u2581nd\u1ecb": 1948,
  "\u0d30": 1949,
  "\u2581\u10d3\u10d0": 1950,
  "wan": 1951,
  "\u2581\u043f\u0440\u0438": 1952,
  "\u2581countries": 1953,
  "ant": 1954,
  "\u012b": 1955,
  "\u2581whole": 1956,
  "\u2581amin": 1957,
  "ag": 1958,
  "\u2581enn": 1959,
  "\u2581\u043d\u043e": 1960,
  "val": 1961,
  "\u2581hath": 1962,
  "\u17c6": 1963,
  "gt": 1964,
  "7": 1965,
  "\u2581thought": 1966,
  "\u2581\u0431\u0438\u0440": 1967,
  "\u2581usa": 1968,
  "\u2581few": 1969,
  "\u2581ze": 1970,
  "\u03ae": 1971,
  "\u2581\u043f\u0430": 1972,
  "\u2581\u0c05": 1973,
  "\u1209": 1974,
  "\u0438\u0431": 1975,
  "\u05e1": 1976,
  "\u2581report": 1977,
  "\u6709": 1978,
  "\u2581\u092a": 1979,
  "\u2581since": 1980,
  "\u0430\u043c": 1981,
  "\u2581Please": 1982,
  "\u2581action": 1983,
  "\u0431\u0438": 1984,
  "\u2581Iehova": 1985,
  "\u2581indeed": 1986,
  "\u2581start": 1987,
  "\u2581\u0627\u0633": 1988,
  "\u2581someone": 1989,
  "\u0f51": 1990,
  "\u0dba": 1991,
  "\u04e9": 1992,
  "\u0631\u0647": 1993,
  "\u2581Error": 1994,
  "nja": 1995,
  "\u2581ngan": 1996,
  "\u2581ter": 1997,
  "\u2581\u1265": 1998,
  "\u04d1\u043d": 1999,
  "aka": 2000,
  "\u0410": 2001,
  "\u2581current": 2002,
  "\u2581uma": 2003,
  "tos": 2004,
  "\u2581using": 2005,
  "\u2581didn": 2006,
  "\u04b3": 2007,
  "\u2581\u201d?": 2008,
  "\u2581forth": 2009,
  "\u05d3": 2010,
  "\u0d02": 2011,
  "\u2581Those": 2012,
  "\u2581continue": 2013,
  "\u2581ng": 2014,
  "lah": 2015,
  "\u2581provide": 2016,
  "\u1794": 2017,
  "\u2581Even": 2018,
  "\u0448\u0435": 2019,
  "ani": 2020,
  "\u05dc": 2021,
  "t\u00eb": 2022,
  "om": 2023,
  "\u2581zu": 2024,
  "\u2581\u00bb.": 2025,
  "\u2581special": 2026,
  "\u0c15": 2027,
  "\u2581uku": 2028,
  "\u2581receive": 2029,
  "\u2581received": 2030,
  "\u2581Per": 2031,
  "lt": 2032,
  "\u6211": 2033,
  "\u2581From": 2034,
  "\u2581\u00e8": 2035,
  "\u043b\u04d9\u0440": 2036,
  "\u0254": 2037,
  "\u2581ur": 2038,
  "\u2581Ang": 2039,
  "8": 2040,
  "\u258121": 2041,
  "\u0e99": 2042,
  "\u2581Adam": 2043,
  "X": 2044,
  "\u0a3f": 2045,
  "\u2581\u0431\u0438": 2046,
  "\u2581language": 2047,
  "\u0446\u0438": 2048,
  "pha": 2049,
  "\u2581j": 2050,
  "\u2581King": 2051,
  "\u03b1": 2052,
  "\u2581\u09aa": 2053,
  "\u2581sons": 2054,
  "\u2581purpose": 2055,
  "\u0fb1": 2056,
  "\u25813.": 2057,
  "\u2581hin": 2058,
  "\u2581\u12a3\u1265": 2059,
  "\u0631\u06cc": 2060,
  "ting": 2061,
  "\u2581ngo": 2062,
  "\u0cb5": 2063,
  "\u2581clear": 2064,
  "\u0430\u043d\u0434": 2065,
  "\u2581prayer": 2066,
  "\u258112:": 2067,
  "\u2581money": 2068,
  "wana": 2069,
  "ura": 2070,
  "\u2581\u12ed": 2071,
  "\u2581hearts": 2072,
  "\u06c7": 2073,
  "ui": 2074,
  "\u2581\u043c\u0443": 2075,
  "van": 2076,
  "10": 2077,
  "\u0e07": 2078,
  "stra": 2079,
  "\u0d4b": 2080,
  "\u0442\u0443": 2081,
  "\u2581yon": 2082,
  "eth": 2083,
  "\u03c3": 2084,
  "\u0d32": 2085,
  "\u2581wu": 2086,
  "\u0c3e": 2087,
  "\u2581\u0639": 2088,
  "\u2581\u043a\u0443": 2089,
  "can": 2090,
  "ok": 2091,
  "ari": 2092,
  "\u2581See": 2093,
  "\u258128": 2094,
  "?\"": 2095,
  "\u2581orang": 2096,
  "\u0458": 2097,
  "\u2581\u0622": 2098,
  "\u043b\u044f": 2099,
  "mes": 2100,
  ":%": 2101,
  "\u0ea1": 2102,
  "\u2581\u09ac": 2103,
  "\u0928\u093e": 2104,
  "\u2581san": 2105,
  "\".": 2106,
  "\u2581\u0430\u043b": 2107,
  "\u258123": 2108,
  "\u2581unit": 2109,
  "\u2581Man": 2110,
  "\u2581Mr": 2111,
  "\u092c": 2112,
  "\u2581ken": 2113,
  "\u0e27": 2114,
  "\u2581joy": 2115,
  "\u2581questions": 2116,
  "yon": 2117,
  "mbu": 2118,
  "\u1ee5": 2119,
  "\u2581key": 2120,
  "\u0434\u0438\u0440": 2121,
  "\u2581air": 2122,
  "\u2581\u0440": 2123,
  "res": 2124,
  "\u0d41": 2125,
  "\u2581\u0441\u0438": 2126,
  "\u2581toward": 2127,
  "\u2581command": 2128,
  "type": 2129,
  "ces": 2130,
  "mak": 2131,
  "\u2581program": 2132,
  "\u258122": 2133,
  "\u2581\u06a9\u0627": 2134,
  "\u2581ako": 2135,
  "tis": 2136,
  "\u2581second": 2137,
  "\u2581created": 2138,
  "\u2581question": 2139,
  "\u2581mpe": 2140,
  "\u2581period": 2141,
  "\u2581Because": 2142,
  "\u2581tou": 2143,
  "num": 2144,
  "\u2581vai": 2145,
  "\u2581Yeah": 2146,
  "eg": 2147,
  "l\u00f3": 2148,
  "ent": 2149,
  "\u2581four": 2150,
  "\u2581Psalm": 2151,
  "\u2581Whether": 2152,
  "\u2581\u09b8": 2153,
  "bli": 2154,
  "\u061f": 2155,
  "EN": 2156,
  "\u09c0": 2157,
  "dos": 2158,
  "\u064a\u0627": 2159,
  "\u2581\u0633": 2160,
  "\u044d\u044d": 2161,
  "\u2581sara": 2162,
  "\u2581doo": 2163,
  "\u13a8": 2164,
  "\u2581\u0438\u0437": 2165,
  "\u2581bad": 2166,
  "\u2581min": 2167,
  "\u1270": 2168,
  "\u0bae\u0bcd": 2169,
  "are": 2170,
  "\u17b6": 2171,
  "dar": 2172,
  "\u258127": 2173,
  "tz": 2174,
  "kha": 2175,
  "iz": 2176,
  "\u099a": 2177,
  "\u2581however": 2178,
  "anna": 2179,
  "\u2581kina": 2180,
  "dde": 2181,
  "iga": 2182,
  "kho": 2183,
  "\u102c": 2184,
  "adh": 2185,
  "\u2581\u00e0w\u1ecdn": 2186,
  "\u4e00": 2187,
  "\u2581mate": 2188,
  "uti": 2189,
  "\u2581works": 2190,
  "\u03b5\u03b9": 2191,
  "\u2581swi": 2192,
  "\u2581\u0939\u0948": 2193,
  "ila": 2194,
  "\u2581knew": 2195,
  "\u2581t\u00e2": 2196,
  "\u2581righteous": 2197,
  "\u05d0\u05b8": 2198,
  "\u2581via": 2199,
  "\u2581anything": 2200,
  "\u127d": 2201,
  "\u0627\u0626": 2202,
  "\u2581\u12a5": 2203,
  "use": 2204,
  "\u2581hands": 2205,
  "\u2581kag": 2206,
  "\u2581\u1019": 2207,
  "\u062a\u0627": 2208,
  "\u0d35": 2209,
  "thu": 2210,
  "\u2581kana": 2211,
  "\u2581experience": 2212,
  "\u2581leave": 2213,
  "\u2581Iesu": 2214,
  "\u2581local": 2215,
  "\u1272": 2216,
  "\u2581pas": 2217,
  "\u2581\u4f60": 2218,
  "\u2581\u041f": 2219,
  "sar": 2220,
  "\u2581\u00ed": 2221,
  "\u0bb0": 2222,
  "\u2581\u0442\u0443": 2223,
  "\u094d\u092f": 2224,
  "\u0a4b": 2225,
  "\u06c6": 2226,
  "\u2581needed": 2227,
  "sy": 2228,
  "\u2581jun": 2229,
  "\u2581ati": 2230,
  "\u2581koe": 2231,
  "\u2581hard": 2232,
  "rum": 2233,
  "\u2581Job": 2234,
  "\u2581please": 2235,
  "\u06af": 2236,
  "\u2581neither": 2237,
  "\u2581Europe": 2238,
  "bili": 2239,
  "\u0e95": 2240,
  "\u2581Yet": 2241,
  "lok": 2242,
  "\u2581zot": 2243,
  "\u0b3f": 2244,
  "\u2581\u0ec0\u0eae\u0ebb\u0eb2": 2245,
  "iki": 2246,
  "\u0b15": 2247,
  "\u0f53\u0f0b": 2248,
  "\u2581problem": 2249,
  "\u258129": 2250,
  "\u2581Yesu": 2251,
  "\u2581gin": 2252,
  "\u0c30\u0c4d": 2253,
  "\u2581\u0623": 2254,
  "gy": 2255,
  "\u2581line": 2256,
  "\u2581members": 2257,
  "\u2581situation": 2258,
  "\u043a\u0435": 2259,
  "\u0bb0\u0bcd": 2260,
  "\u0ba4\u0bc1": 2261,
  "\u10ee": 2262,
  "\u2581File": 2263,
  "\u4f60": 2264,
  "\u2581mankind": 2265,
  "\u2581isi": 2266,
  "\u0644\u0649": 2267,
  "\u2581\u0646\u06d2": 2268,
  "\u0eb2": 2269,
  "\u2581bon": 2270,
  "\u2581yourself": 2271,
  "\u2581heavens": 2272,
  "\u05db": 2273,
  "gin": 2274,
  "\u2581problems": 2275,
  "s\u00ed": 2276,
  "ity": 2277,
  "\u0633\u0647": 2278,
  "\u2581inter": 2279,
  "\u25810": 2280,
  "\u2581diri": 2281,
  "uri": 2282,
  "\u062a\u0627\u0646": 2283,
  "\u2581lava": 2284,
  "\u2581Select": 2285,
  "\u2581elders": 2286,
  "\u2581ina": 2287,
  "jen": 2288,
  "\u0db1": 2289,
  "\u2581Committee": 2290,
  "fan": 2291,
  "\u1230": 2292,
  "\u2581Union": 2293,
  "\u05e7": 2294,
  "\u2581talk": 2295,
  "\u0d24": 2296,
  "20": 2297,
  "\u2581Of": 2298,
  "\u0ac7": 2299,
  "\u2581application": 2300,
  "ue": 2301,
  "\u2581humans": 2302,
  "\u1e25": 2303,
  "\u06cc\u062f": 2304,
  "\u2581fer": 2305,
  "\u2581qa": 2306,
  "\u2581try": 2307,
  "nto": 2308,
  "\u2581\u0431\u0430\u0440": 2309,
  "\u2581qu": 2310,
  "\u2581happy": 2311,
  "\u2581side": 2312,
  "\u2581fil": 2313,
  "lay": 2314,
  "\u2581answer": 2315,
  "r\u00ed": 2316,
  "\u2581ten": 2317,
  "\u2581marriage": 2318,
  "ft": 2319,
  "\u2581move": 2320,
  "\u2581fellow": 2321,
  "\u2581husband": 2322,
  "\u0578": 2323,
  "nji": 2324,
  "pat": 2325,
  "\u2581\u12a8": 2326,
  "\u2581Matthew": 2327,
  "\u0493": 2328,
  "tri": 2329,
  "mon": 2330,
  "l\u00e8": 2331,
  "\u2581\u0431\u043e": 2332,
  "\u2581\u306b": 2333,
  "\u2581s\u00ed": 2334,
  "dia": 2335,
  "\u2581eat": 2336,
  "anga": 2337,
  "ere": 2338,
  "\u2581coming": 2339,
  "\u65e5": 2340,
  "\u2581loving": 2341,
  "\u1320": 2342,
  "\u2581needs": 2343,
  "\u06af\u0647": 2344,
  "rt": 2345,
  "\u2581Cha": 2346,
  "\u0ab2": 2347,
  "\u1ecb": 2348,
  "\u2581ndo": 2349,
  "\u12f3": 2350,
  "\u1780": 2351,
  "\u2581fine": 2352,
  "\u25815.": 2353,
  "\u2581mwa": 2354,
  "\u2581\u067e\u0647": 2355,
  "\u2581plan": 2356,
  "\u2581State": 2357,
  "\u2581tagata": 2358,
  "\u063a\u0627": 2359,
  "\u0ba4": 2360,
  "\u258110:": 2361,
  "ende": 2362,
  "\u04d5\u043d": 2363,
  "\u2581return": 2364,
  "(_": 2365,
  "\u2581friends": 2366,
  "\u2581share": 2367,
  "\u2581kwe": 2368,
  "\u2581EU": 2369,
  "nzi": 2370,
  "ram": 2371,
  "\u0bb2": 2372,
  "\u0e22": 2373,
  "\u2581\u0627\u0648": 2374,
  "stu": 2375,
  "\u0c24": 2376,
  "\u2581Jews": 2377,
  "\u2581wicked": 2378,
  "\u2581t\u00e4": 2379,
  "\u2581benefit": 2380,
  "\u2581\u0430\u0437": 2381,
  "\u0d3f": 2382,
  "\u00e1n": 2383,
  "\u2581ari": 2384,
  "\u0438\u0448": 2385,
  "\u062f\u0649\u0646": 2386,
  "\u2581Many": 2387,
  "\u2581nda": 2388,
  "ker": 2389,
  "\u2581century": 2390,
  "\u2581Ru": 2391,
  "\u2581Day": 2392,
  "\u2581save": 2393,
  "\u0cc7": 2394,
  "\u2581comes": 2395,
  "\u2581wisdom": 2396,
  "\u2581wax": 2397,
  "\u062c": 2398,
  "\u043e\u0442": 2399,
  "\u2581tala": 2400,
  "ris": 2401,
  "\u2581small": 2402,
  "9": 2403,
  "\u0ba4\u0bcd\u0ba4": 2404,
  "\u12d5": 2405,
  "\u05ea": 2406,
  "\u0430\u0434": 2407,
  "\u0baf": 2408,
  "\u2581\u0570": 2409,
  "\u0a3e": 2410,
  "\u0148": 2411,
  "\u2581Say": 2412,
  "ej": 2413,
  "\u12ab": 2414,
  "lang": 2415,
  "\u0438\u0442\u0435": 2416,
  "\u0dbd": 2417,
  "\u2581tino": 2418,
  "\u2581ah": 2419,
  "\u2581gonna": 2420,
  "ip": 2421,
  "\u2581above": 2422,
  "\u6708": 2423,
  "19": 2424,
  "\u09b6": 2425,
  "\u2581helped": 2426,
  "\u0c2e\u0c41": 2427,
  "\u2581Don": 2428,
  "oc": 2429,
  "\u2581b\u00e1": 2430,
  "\u2581nations": 2431,
  "\u2581\u0438\u043d": 2432,
  "\u0b95\u0bcd\u0b95": 2433,
  "\u134d": 2434,
  "l\u00ed": 2435,
  "\u0ea7": 2436,
  "\u00ec": 2437,
  "lwa": 2438,
  "nte": 2439,
  "\u2581real": 2440,
  "\u2581Men": 2441,
  "\u0d15": 2442,
  "\u0e87": 2443,
  "hla": 2444,
  "\u2581\u1794": 2445,
  "raa": 2446,
  "port": 2447,
  "\u0638": 2448,
  "yl": 2449,
  "\u2581strong": 2450,
  "\u0ac0": 2451,
  "\u2581\u12dd": 2452,
  "\u0456": 2453,
  "\u2581Scriptures": 2454,
  "\u09cd\u09af": 2455,
  "\u2581sta": 2456,
  "\u2581fire": 2457,
  "pro": 2458,
  "\u2581area": 2459,
  "\u0d47": 2460,
  "\u2581document": 2461,
  "\u06ce": 2462,
  "\u03c6": 2463,
  "\u0ca1": 2464,
  "\u2581kitai": 2465,
  "mana": 2466,
  "\u2581dat": 2467,
  "\u2581Mar": 2468,
  "\u0e25": 2469,
  "\u1233": 2470,
  "\u2581\u062e": 2471,
  "\u258111:": 2472,
  "\u2581<": 2473,
  "ela": 2474,
  "\u2581trust": 2475,
  "\u0917": 2476,
  "syon": 2477,
  "\u2581\u092a\u094d\u0930": 2478,
  "\u2581\u06c1\u06cc\u06ba": 2479,
  "\u2581\u06a9\u0627\u0646": 2480,
  "\u0acd": 2481,
  "\u12f0": 2482,
  "\u258126": 2483,
  "\u2581wanted": 2484,
  "lag": 2485,
  "\u2581meetings": 2486,
  "\u2581Ju": 2487,
  "\u0441\u044f": 2488,
  "ati": 2489,
  "io": 2490,
  "\u2581\u041f\u0430": 2491,
  "dda": 2492,
  "\u2581decision": 2493,
  "\u0525": 2494,
  "cht": 2495,
  "\u133d": 2496,
  "\u2581\u0986": 2497,
  "bel": 2498,
  "\u2581ph": 2499,
  "\u2581aki": 2500,
  "\u2581toe": 2501,
  "\u2581yeke": 2502,
  "\u2581\u06cb\u06d5": 2503,
  "\u306e": 2504,
  "\u2581field": 2505,
  "\u2581lives": 2506,
  "\u2581\u0445": 2507,
  "\u011f": 2508,
  "\u10db": 2509,
  "phe": 2510,
  "\u2581Where": 2511,
  "\u2581\u1000\u102d\u102f": 2512,
  "t\u0101": 2513,
  "\u2581Kon": 2514,
  "\u0561\u056f": 2515,
  "yr": 2516,
  "format": 2517,
  "\u1205": 2518,
  "\u0a95": 2519,
  "\u012f": 2520,
  "mp": 2521,
  "\u2581las": 2522,
  "\u2581remember": 2523,
  "aba": 2524,
  "ex": 2525,
  "\u0627\u062f": 2526,
  "\u1037": 2527,
  "\u2581everything": 2528,
  "\u03bf": 2529,
  "\u2581taking": 2530,
  "\u0430\u043b": 2531,
  "\u0bc1\u0bae\u0bcd": 2532,
  "\u062a\u06cc": 2533,
  "\u2581\u043d\u0438": 2534,
  "\u2581ihe": 2535,
  "keun": 2536,
  "\u2581\u0985": 2537,
  "\u2581Thus": 2538,
  "\u2581Wi": 2539,
  "\u0d3e": 2540,
  "\u1325": 2541,
  "ale": 2542,
  "\u25813,": 2543,
  "ngaahi": 2544,
  "lek": 2545,
  "\u2581\u0627\u0633\u062a": 2546,
  "\u2581ourselves": 2547,
  "nin": 2548,
  "\u0e81": 2549,
  "\u2581ej": 2550,
  "bat": 2551,
  "\u2581social": 2552,
  "uk": 2553,
  "ente": 2554,
  "\u2581desire": 2555,
  "\u2581\u041a": 2556,
  "Other": 2557,
  "\u0418": 2558,
  "Q": 2559,
  "bre": 2560,
  "\u091c": 2561,
  "\u2581certainly": 2562,
  "nak": 2563,
  "\u0d9a": 2564,
  "\u06be\u064a": 2565,
  "\u00f3n": 2566,
  "\u0e94": 2567,
  "\u2581counsel": 2568,
  "\u043b\u0456": 2569,
  "\u0434\u0435\u0440": 2570,
  "ora": 2571,
  "ara": 2572,
  "yen": 2573,
  "\u06cc\u0627": 2574,
  "\u2581Hu": 2575,
  "\u1263": 2576,
  "\u2581pay": 2577,
  "hon": 2578,
  "\u2581surely": 2579,
  "\u2581\u0442\u0438": 2580,
  "\u0623": 2581,
  "\u2581makes": 2582,
  "\u2581aan": 2583,
  "ish": 2584,
  "\u016b": 2585,
  "\u2581whaka": 2586,
  "ksi": 2587,
  "c\u00df": 2588,
  "\u03ac": 2589,
  "ness": 2590,
  "\u2581May": 2591,
  "sul": 2592,
  "\u0c95": 2593,
  "\u0445\u0430": 2594,
  "\u0626": 2595,
  "\u0dd9": 2596,
  "\u2581\u043c": 2597,
  "\u2581mit": 2598,
  "\u2581\u0433\u043e": 2599,
  "\u0bc7": 2600,
  "\u2581whose": 2601,
  "ngan": 2602,
  "lli": 2603,
  "\u04ad\u0430": 2604,
  "sel": 2605,
  "\u2581health": 2606,
  "\u0499": 2607,
  "\u2581\u0915\u0930": 2608,
  "\u121b": 2609,
  "\u04d5\u0439": 2610,
  "\u0a41": 2611,
  "\u2581head": 2612,
  "\u0633\u0627": 2613,
  "\u258140": 2614,
  "gg": 2615,
  "kk": 2616,
  "\u0648\u0627\u0646\u0647": 2617,
  "\u2581tar": 2618,
  "\u0b28": 2619,
  "\u2581Organiser": 2620,
  "\u06d5\u062a": 2621,
  "\u09f0\u09cd": 2622,
  "\u2581lead": 2623,
  "\u2581anointed": 2624,
  "\u0a15": 2625,
  "\u2581\u1270": 2626,
  "vel": 2627,
  "cer": 2628,
  "\u2581near": 2629,
  "\u0561": 2630,
  "ilo": 2631,
  "\u0b47": 2632,
  "\u0f62\u0f0b": 2633,
  "Ma": 2634,
  "\u2581f\u00e8": 2635,
  "\u2581\u0b87": 2636,
  "pre": 2637,
  "tum": 2638,
  "\u2581\u05d0": 2639,
  "\u044b\u043f": 2640,
  "tua": 2641,
  "\u2581thus": 2642,
  "d\u0259": 2643,
  "\u03c0": 2644,
  "\u1784": 2645,
  "\u064a\u06d5\u0646\u0649": 2646,
  "tut": 2647,
  "ff": 2648,
  "\u0432\u0435": 2649,
  "\u2581\u0627\u0644\u0623": 2650,
  "\u25812,": 2651,
  "tel": 2652,
  "ist": 2653,
  "\u2581\u1e63e": 2654,
  "\u1019": 2655,
  "\u2581\u0432\u043e": 2656,
  "\u2581aika": 2657,
  "nna": 2658,
  "mma": 2659,
  "\u2581KDE": 2660,
  "\u2581d\u00e9": 2661,
  "\u2581soon": 2662,
  "\u2581\u05de": 2663,
  "mpi": 2664,
  "\u2581remain": 2665,
  "set": 2666,
  "\u2581Therefore": 2667,
  "\u2581\u0413": 2668,
  "\u062f\u0649": 2669,
  "\u2581latou": 2670,
  "\u0103": 2671,
  "ssi": 2672,
  "t\u00ed": 2673,
  "dwa": 2674,
  "\u10e0": 2675,
  "\u0e01": 2676,
  "mento": 2677,
  "ano": 2678,
  "\u2581till": 2679,
  "\u2581self": 2680,
  "\u2581een": 2681,
  "\u2581Move": 2682,
  "\u2581r\u00e9": 2683,
  "\u2581Ci": 2684,
  "rwa": 2685,
  "\u2581based": 2686,
  "\\": 2687,
  "\u0438\u0442": 2688,
  "\u2581\u044d": 2689,
  "\u2581Chi": 2690,
  "\u2581\u042d": 2691,
  "ns": 2692,
  "\u2581yan": 2693,
  "\u2581Am": 2694,
  "\u0f63\u0f0b": 2695,
  "ens": 2696,
  "\u03c2": 2697,
  "\u2581meeting": 2698,
  "\u0438\u0437": 2699,
  "run": 2700,
  "\u0627\u0645": 2701,
  "\u2581authority": 2702,
  "\u2581activities": 2703,
  "vis": 2704,
  "\u2581Canno": 2705,
  "\u2581eller": 2706,
  "\u2581THE": 2707,
  "\u13ad": 2708,
  "\u10d7": 2709,
  "\u0127": 2710,
  "\u2581Pu": 2711,
  "\u2581happened": 2712,
  "\u0dda": 2713,
  "\u2581vis": 2714,
  "\u2581Daniel": 2715,
  "tika": 2716,
  "kka": 2717,
  "\u0aa8": 2718,
  "\u0935\u093e": 2719,
  "\u03c9": 2720,
  "\u0435\u0440": 2721,
  "\u258110.": 2722,
  "\u2581relationship": 2723,
  "\u2581age": 2724,
  "\u2581kei": 2725,
  "\u2581\u0441\u0443": 2726,
  "\u2581World": 2727,
  "\u2581felt": 2728,
  "\u25818.": 2729,
  "\u2581\u0a38": 2730,
  "dat": 2731,
  "\u0923": 2732,
  "\u179b": 2733,
  "com": 2734,
  "\u00e1l": 2735,
  "mata": 2736,
  "\u0ab5": 2737,
  "\u0447\u044b": 2738,
  "\u2581mas": 2739,
  "mit": 2740,
  "\u2581\u0914\u0930": 2741,
  "\u0a71": 2742,
  "\u13aa": 2743,
  "\u2581national": 2744,
  "\u0624": 2745,
  "\u03ba": 2746,
  "ure": 2747,
  "\u2581development": 2748,
  "\u0e1a": 2749,
  "\u2581create": 2750,
  "\u2581Yo": 2751,
  "\u2581Pre": 2752,
  "\u04b3\u0430": 2753,
  "\u2581Es": 2754,
  "\u2581avoid": 2755,
  "\u0441\u044b": 2756,
  "\u0636": 2757,
  "\u2581wise": 2758,
  "\u2581ear": 2759,
  "\u2581vol": 2760,
  "\u062a\u0647": 2761,
  "\u258113:": 2762,
  "\u2581written": 2763,
  "das": 2764,
  "ld": 2765,
  "\u25817.": 2766,
  "\u2581\u0648\u06c1": 2767,
  "\u2581Add": 2768,
  "jar": 2769,
  "\u0aa4": 2770,
  "\u2581further": 2771,
  "\u2581\u041a\u0430": 2772,
  "\u0bae": 2773,
  "\u258150": 2774,
  "\u0e32": 2775,
  "\u2581\u0578\u0580": 2776,
  "\u0cae": 2777,
  "\u2581soul": 2778,
  "nas": 2779,
  "taki": 2780,
  "City": 2781,
  "\u2581\u0434\u0435": 2782,
  "\u043d\u04d1": 2783,
  "\u2581\u06fe": 2784,
  "var": 2785,
  "\u25817:": 2786,
  "mal": 2787,
  "\u2581Fo": 2788,
  "\u0c32\u0c41": 2789,
  "\u04af\u04af": 2790,
  "\u2581baptized": 2791,
  "\u2581ake": 2792,
  "\u2581\u00e5": 2793,
  "\u0444\u0438": 2794,
  "\u2581\u17d4": 2795,
  "\u2581\u0622\u0646": 2796,
  "\u2581\u043a\u0435": 2797,
  "war": 2798,
  "\u2581died": 2799,
  "\u2581level": 2800,
  "\u0db1\u0dca": 2801,
  "\u2581once": 2802,
  "\u2581learned": 2803,
  "\u1215": 2804,
  "\u2581\u0e9e\u0eb0": 2805,
  "l\u00e4": 2806,
  "\u2581pan": 2807,
  "\u0c97": 2808,
  "\u0431\u043e": 2809,
  "\u0441\u0435\u043c": 2810,
  "\u0921": 2811,
  "\u12c8": 2812,
  "\u0451": 2813,
  "\u1245": 2814,
  "\u2581xe": 2815,
  "\u258133": 2816,
  "\u0a3e\u0a02": 2817,
  "bwa": 2818,
  "\u2581\u13d7": 2819,
  "\",": 2820,
  "\u178f": 2821,
  "\u0445\u04d9": 2822,
  "mar": 2823,
  "\u2581tai": 2824,
  "\u2581ali": 2825,
  "\u2581az": 2826,
  "\u05d0": 2827,
  "\u2581\u04b3\u0430\u043c": 2828,
  "\u043b\u04d9": 2829,
  "\u043a\u04d9": 2830,
  "\u0b2e": 2831,
  "\u13cd\u13d7": 2832,
  "\u0daf": 2833,
  "\u2581Joseph": 2834,
  "\u2581position": 2835,
  "\u0bc1": 2836,
  "\u2581iki": 2837,
  "\u056b\u0576": 2838,
  "\u2581\u062d": 2839,
  "\u2581pie": 2840,
  "\u2581\u0412": 2841,
  "sko": 2842,
  "\u0438\u044f": 2843,
  "\u2581\u0414": 2844,
  "\u25816.": 2845,
  "\u2581nen": 2846,
  "\u2581skal": 2847,
  "\u10d8\u10e1": 2848,
  "\u12ad": 2849,
  "\u00f6": 2850,
  "\u0abf": 2851,
  "ili": 2852,
  "\u17bc": 2853,
  "\u2581international": 2854,
  "\u2581uz": 2855,
  "kt": 2856,
  "ito": 2857,
  "\u2581Par": 2858,
  "\u00fcn": 2859,
  "\u2581necessary": 2860,
  "\u2581five": 2861,
  "\u10d0\u10d3": 2862,
  "\u2581m\u00e9": 2863,
  "\u2581sija": 2864,
  "\u2581temple": 2865,
  "\u2581working": 2866,
  "sten": 2867,
  "\u2581sur": 2868,
  "\u0430\u0445": 2869,
  "dd": 2870,
  "\u0e9a": 2871,
  "\u09b0\u09cd": 2872,
  "\u102d": 2873,
  "\u2581enough": 2874,
  "\u2581tak": 2875,
  "\u2581school": 2876,
  "\u0e8d": 2877,
  "\u2581glory": 2878,
  "\u101b": 2879,
  "\u2581(%": 2880,
  "\u0ec9": 2881,
  "ata": 2882,
  "ay": 2883,
  "sse": 2884,
  "tura": 2885,
  "\u00e7\u00e3o": 2886,
  "\u3044": 2887,
  "\u2581along": 2888,
  "\u2581Come": 2889,
  "\u017ei": 2890,
  "\u2581ete": 2891,
  "\u0930\u094d": 2892,
  "\u00e9r": 2893,
  "\u2581ima": 2894,
  "\u0565\u0580": 2895,
  "\u2581\u0445\u043e": 2896,
  "\u043d\u044b\u04a3": 2897,
  "tse": 2898,
  "\u2581Indeed": 2899,
  "\u2581\u0443\u043b": 2900,
  "con": 2901,
  "\u044b\u0437": 2902,
  "\u2581pray": 2903,
  "ow": 2904,
  "mm": 2905,
  "nni": 2906,
  "\u2581\u043e\u0431": 2907,
  "my": 2908,
  "\u0cc6": 2909,
  "nar": 2910,
  "asa": 2911,
  "\u2581Wo": 2912,
  "mber": 2913,
  "\u2581pla": 2914,
  "\u05d1": 2915,
  "iza": 2916,
  "\u0434\u044b\u0440": 2917,
  "\u09b9": 2918,
  "\u12a3": 2919,
  "zen": 2920,
  "\u2581sub": 2921,
  "\u1031": 2922,
  "\u2581aga": 2923,
  "\u2581nke": 2924,
  "tso": 2925,
  "r\u00e4": 2926,
  "\u2581enter": 2927,
  "\u2581dhe": 2928,
  "\u0ca8\u0cc1": 2929,
  "para": 2930,
  "\u10db\u10d0": 2931,
  "\u0645\u0647": 2932,
  "\u2581\u121d": 2933,
  "\u091a\u093e": 2934,
  "\u09b8": 2935,
  "mus": 2936,
  "\u2581act": 2937,
  "\u2581\u101e": 2938,
  "\u2581Just": 2939,
  "\u2581Fe": 2940,
  "\u2581yu": 2941,
  "\u0433\u0438": 2942,
  "wer": 2943,
  "\u2581Israelites": 2944,
  "gra": 2945,
  "\u2581apply": 2946,
  "\u2581Isa": 2947,
  "\u2581\u101b": 2948,
  "tak": 2949,
  "mme": 2950,
  "\u2581\u0430\u0440": 2951,
  "\u2581least": 2952,
  "met": 2953,
  "\u2581giving": 2954,
  "You": 2955,
  "\u2581Biblia": 2956,
  "\u13c9": 2957,
  "\u0628\u0631": 2958,
  "\u2581\u0622\u06be\u0646": 2959,
  "\u0440\u0442": 2960,
  "ij": 2961,
  "of": 2962,
  "\u043c\u0430\u043d": 2963,
  "\u2581early": 2964,
  "\u2581regard": 2965,
  "\u0169": 2966,
  "\u2581\u0648\u0627\u0644": 2967,
  "\u2581kaj": 2968,
  "kulu": 2969,
  "\u0930\u093e": 2970,
  "zh": 2971,
  "ib": 2972,
  "\u2581gives": 2973,
  "kom": 2974,
  "\u10ea": 2975,
  "\u2581\u00f3": 2976,
  "\u043b\u0443": 2977,
  "\u00fb": 2978,
  "\u2581difficult": 2979,
  "\u0e15": 2980,
  "\u2581measures": 2981,
  "\u0c40": 2982,
  "\u2581\u306f": 2983,
  "\u2581stand": 2984,
  "\u2581\u05dc": 2985,
  "sho": 2986,
  "bh": 2987,
  "din": 2988,
  "\u043b\u044b\u043a": 2989,
  "\u2581\u06c1\u0648": 2990,
  "get": 2991,
  "\u2581label": 2992,
  "\u0ac1": 2993,
  "\u2581\u0686": 2994,
  "ses": 2995,
  "\u0dad\u0dca": 2996,
  "\u043c\u04d5": 2997,
  "kai": 2998,
  "\u2581voor": 2999,
  "\u2581\u04b3\u0430": 3000,
  "\u2581form": 3001,
  "\u2581particular": 3002,
  "\u2581dagiti": 3003,
  "org": 3004,
  "\u2581GNOME": 3005,
  "\u2581\u0c95": 3006,
  "\u0578\u0582": 3007,
  "\u258112.": 3008,
  "11": 3009,
  "\u0449\u0435": 3010,
  "\u2581lie": 3011,
  "\u2581mercy": 3012,
  "\u2581\u0448\u0430": 3013,
  "int": 3014,
  "mis": 3015,
  "\u2581anyone": 3016,
  "\u05d2": 3017,
  "\u00fan": 3018,
  "0": 3019,
  "\u05d5": 3020,
  "\u2581knows": 3021,
  "\u0565\u056c": 3022,
  "\u2581sh": 3023,
  "\u2581\u062e\u0648\u062f": 3024,
  "ung": 3025,
  "\u1785": 3026,
  "\u2581Q": 3027,
  "\u2581Com": 3028,
  "\u0436\u0435": 3029,
  "\u2581temporary": 3030,
  "\u0a38": 3031,
  "\u2581ac": 3032,
  ".\u201d": 3033,
  "\u2581\u1ecc": 3034,
  "\u0c2a": 3035,
  "\u2581reading": 3036,
  "she": 3037,
  "taan": 3038,
  "\u2581\u0ec0": 3039,
  "\u17c1": 3040,
  "\u25819.": 3041,
  "\u2581\u092c": 3042,
  "\u2581sea": 3043,
  "\u2581ay": 3044,
  "\u2581concerning": 3045,
  "lem": 3046,
  "\u2581greater": 3047,
  "\u13e5": 3048,
  "\u0d9a\u0dca": 3049,
  "\u2581prophet": 3050,
  "\u0cc2": 3051,
  "\u2581Ve": 3052,
  "teri": 3053,
  "J": 3054,
  "\u2581lea": 3055,
  "\u2581n\u00f3": 3056,
  "\u2581von": 3057,
  "\u2581righteousness": 3058,
  "\u0646\u062f\u0648": 3059,
  "\u2581\u0ec3\u0eab\u0ec9": 3060,
  "rea": 3061,
  "\u062c\u0627": 3062,
  "\u2581teaching": 3063,
  "\u00f5n": 3064,
  "\u2581sem": 3065,
  "\u2581material": 3066,
  "\u5230": 3067,
  "\u2581\u0432\u0438": 3068,
  "\u0f44\u0f0b": 3069,
  "\u2581ezi": 3070,
  "hr": 3071,
  "\u2581except": 3072,
  "\u0493\u044b": 3073,
  "\u0ccd\u0caf": 3074,
  "\u2581\u0633\u0647": 3075,
  "\u2581address": 3076,
  "\u0bbe": 3077,
  "\u03c4\u03b1": 3078,
  "\u2581\u041d\u0435": 3079,
  "\u2581General": 3080,
  "\u2581tre": 3081,
  "\u2581\u0626\u06d5": 3082,
  "\u2581\u0645\u0627": 3083,
  "\u2581promise": 3084,
  "\u2581enjoy": 3085,
  "\u2581\u0424": 3086,
  "\u2581past": 3087,
  "\u2581Solomon": 3088,
  "\u2581\u0a39\u0a48": 3089,
  "\u2581Isaiah": 3090,
  "\u2581\u2014\u2060": 3091,
  "\u09bf\u09a4": 3092,
  "r\u00f3": 3093,
  "\u2581accept": 3094,
  "uli": 3095,
  "\u2581ab": 3096,
  "\u2581lost": 3097,
  "\u10d5": 3098,
  "\u2581loto": 3099,
  "jer": 3100,
  "\u2581nation": 3101,
  "tau": 3102,
  "\u0434\u0430\u0440": 3103,
  "\u2581sun": 3104,
  "\u2581common": 3105,
  "\u2581\u13a2": 3106,
  "ive": 3107,
  "\u2581\u0111": 3108,
  "\u2581especially": 3109,
  "\u2581\u092e": 3110,
  "\u2581dua": 3111,
  "\u2581\u13af\u13a0": 3112,
  "\u0634\u062a": 3113,
  "\u2581angels": 3114,
  "og": 3115,
  "\u2581Die": 3116,
  "\u057f": 3117,
  "\u2581waa": 3118,
  "\u2581alone": 3119,
  "\u2581seek": 3120,
  "\u4e0a": 3121,
  "leg": 3122,
  "\u0627\u0641": 3123,
  "oon": 3124,
  "\u0435\u0439": 3125,
  "\u2581\u043f": 3126,
  "\u2581state": 3127,
  "\u2581\u00een": 3128,
  "\u2581effect": 3129,
  "\u2581itu": 3130,
  "\u2581gra": 3131,
  "zin": 3132,
  "\u0b95": 3133,
  "day": 3134,
  "AL": 3135,
  "mene": 3136,
  "\u2581teach": 3137,
  "\u0987": 3138,
  "\u2581Did": 3139,
  "\u13ef": 3140,
  "\u13cf": 3141,
  "\u2581dos": 3142,
  "\u2581Bar": 3143,
  "\u0d41\u0d02": 3144,
  "\u2581\u0633\u0648": 3145,
  "\u2581thinking": 3146,
  "\u0433\u0443": 3147,
  "\u043d\u0443": 3148,
  "\u0a2e": 3149,
  "\u101c": 3150,
  "\u2581believers": 3151,
  "\u2581third": 3152,
  "\u2581changes": 3153,
  "\u0432\u0435\u0440": 3154,
  "\u05de": 3155,
  "\u2581bil": 3156,
  "\u0cb0\u0ccd": 3157,
  "nk": 3158,
  "bri": 3159,
  "\u2581attention": 3160,
  "\u0627\u0621": 3161,
  "\u2581months": 3162,
  "\u2581\u05d1": 3163,
  "\u2581seven": 3164,
  "\u0e2a": 3165,
  "\u2581fra": 3166,
  "\u2581contact": 3167,
  "lor": 3168,
  "\u2581\u00f1an": 3169,
  "\u2581Lu": 3170,
  "\u2581voice": 3171,
  "\u1010": 3172,
  "\u2581\u0411": 3173,
  "\u2581Use": 3174,
  "\u05e6": 3175,
  "\u0caf": 3176,
  "\u178e": 3177,
  "\u2581Saul": 3178,
  "\u2581shi": 3179,
  "ane": 3180,
  "bha": 3181,
  "\u2581rest": 3182,
  "l\u0259": 3183,
  "inn": 3184,
  "\u2581send": 3185,
  "lama": 3186,
  "\u2581akan": 3187,
  "zwa": 3188,
  "\u2581\u0412\u0430": 3189,
  "\u2581\u3092": 3190,
  "\u2581kingdom": 3191,
  "tera": 3192,
  "\u2581kindness": 3193,
  "\u2581100": 3194,
  "\u2581>": 3195,
  "\u2581mis": 3196,
  "\u015b": 3197,
  "\u0eb0": 3198,
  "\u0b2c": 3199,
  "\u2581l\u00e0": 3200,
  "\u2581menu": 3201,
  "\u2581\u043e\u0434": 3202,
  "\u2581sense": 3203,
  "\u0cb8": 3204,
  "\u057a": 3205,
  "\u2581kae": 3206,
  "\u2581\u0eaa": 3207,
  "\u2581\u062a\u0645": 3208,
  "ert": 3209,
  "log": 3210,
  "ple": 3211,
  "net": 3212,
  "\u2581tautolu": 3213,
  "\u2581item": 3214,
  "\u25818:": 3215,
  "ez": 3216,
  "\u043d\u0435\u04a3": 3217,
  "\u2581meet": 3218,
  "\u2581door": 3219,
  "\u13b8": 3220,
  "\u0a42": 3221,
  "12": 3222,
  "\u05e8": 3223,
  "\u2581\u03ba\u03b1\u03b9": 3224,
  "h\u00e9": 3225,
  "\u04e3": 3226,
  "\u2581nti": 3227,
  "pla": 3228,
  "\u03af": 3229,
  "\u1e5b": 3230,
  "kla": 3231,
  "\u0434\u0443": 3232,
  "\u2581OF": 3233,
  "\u2581\u0915\u0940": 3234,
  "\u2581kala": 3235,
  "\u2581\u0d85": 3236,
  "dor": 3237,
  "\u2581dy": 3238,
  "\u05e9": 3239,
  "\u2581game": 3240,
  "\u2581\u0440\u0435": 3241,
  "agh": 3242,
  "\u2581\u179f": 3243,
  "\u043c\u044b": 3244,
  "\u2581answered": 3245,
  "\u2581\u041d\u0430": 3246,
  "\u06d5": 3247,
  "\u2581@": 3248,
  "t\u00e0": 3249,
  "\u258114.": 3250,
  "\u0d2e": 3251,
  "\u2581l\u00e8": 3252,
  "\u258111.": 3253,
  "\u2581flesh": 3254,
  "In": 3255,
  "\u2581moved": 3256,
  "\u2581date": 3257,
  "\u2581Nations": 3258,
  "\u2581\u0e88\u0eb0": 3259,
  "\u0ccb": 3260,
  "kat": 3261,
  "\u2581\u06a9": 3262,
  "\u2581n\u00eb": 3263,
  "\u062f\u06c7\u0631": 3264,
  "\u2581Law": 3265,
  "\u2581Most": 3266,
  "\u2581similar": 3267,
  "\u0fb2": 3268,
  "\u2581\u0ec3\u0e99": 3269,
  "nic": 3270,
  "\u2581\u043e\u043d": 3271,
  "red": 3272,
  "\u2581\u0456": 3273,
  "ele": 3274,
  "\u2581eb": 3275,
  "\u2581hold": 3276,
  "\u2581II": 3277,
  "\u2581stay": 3278,
  "gle": 3279,
  "\u06c8": 3280,
  "\u2581sen": 3281,
  "sam": 3282,
  "tori": 3283,
  "tter": 3284,
  "\u0e14": 3285,
  "\u2581ing": 3286,
  "\u2581\u062f\u0648": 3287,
  "\u2581Evolution": 3288,
  "\u043c\u0435\u043d": 3289,
  "\u2581\u0b38": 3290,
  "\u2581kia": 3291,
  "\u2581strength": 3292,
  "d\u00e9": 3293,
  "ide": 3294,
  "\u0438\u0440": 3295,
  "\u0c30\u0c41": 3296,
  "ix": 3297,
  "jn": 3298,
  "\u0926\u093e": 3299,
  "\u2581\u0627\u0644\u062a": 3300,
  "\u2581turned": 3301,
  "\u2581\u0cae": 3302,
  "\u05e2\u05e8": 3303,
  "\u2581appropriate": 3304,
  "\u2581witness": 3305,
  "\u2581conditions": 3306,
  "\u0ec8": 3307,
  "\u13d2": 3308,
  "\u0441\u0430\u043d": 3309,
  "\u0c21": 3310,
  "\u0d15\u0d4d\u0d15": 3311,
  "\u2581\u0626\u0649": 3312,
  "\u0dd0": 3313,
  "\u021b": 3314,
  "\u2581display": 3315,
  "\u1229": 3316,
  "\u2581mala": 3317,
  "\u03b5": 3318,
  "\u2581\u0ec4\u0e94\u0ec9": 3319,
  "\u17b7": 3320,
  "cion": 3321,
  "\u2581ist": 3322,
  "\u258115:": 3323,
  "\u2581\u0414\u0430": 3324,
  "\u2581friend": 3325,
  "\u2581roto": 3326,
  "\u0430\u0448": 3327,
  "\u2581\u092e\u0947\u0902": 3328,
  "\u2581serving": 3329,
  "\u043f\u043e": 3330,
  "\u2581religious": 3331,
  "\u2581v\u0259": 3332,
  "\u0924\u0940": 3333,
  "\u0630": 3334,
  "\u2581\u0b89": 3335,
  "mente": 3336,
  "\u017ee": 3337,
  "pri": 3338,
  "\u2581process": 3339,
  "\u2581large": 3340,
  "rus": 3341,
  "\u2581kaka": 3342,
  "\u2581heavenly": 3343,
  "\u2581perfect": 3344,
  "\u041e": 3345,
  "\u2581Gi": 3346,
  "\u13b3": 3347,
  "\u2581forever": 3348,
  "\u2581\u0415": 3349,
  "\u0a82": 3350,
  "\u2581Have": 3351,
  "\u2581wala": 3352,
  "\u178a": 3353,
  "\u1240": 3354,
  "\u0442\u0430\u043d": 3355,
  "\u2581principles": 3356,
  "\u0646\u062f\u0627": 3357,
  "\u2581religion": 3358,
  "\u258115.": 3359,
  "\u2581interest": 3360,
  "\u1004\u103a": 3361,
  "\u2581services": 3362,
  "\u2581Book": 3363,
  "\u2581rights": 3364,
  "l\u0131": 3365,
  "\u2581\u012f": 3366,
  "\u2581mena": 3367,
  "\u0574": 3368,
  "\u2581pen": 3369,
  "\u2581Il": 3370,
  "\u2581required": 3371,
  "\u12a8": 3372,
  "\u05d6": 3373,
  "\u041b": 3374,
  "\u04d5\u043c": 3375,
  "\u2581ah\u1ee5": 3376,
  "\u2581write": 3377,
  "\u2581allow": 3378,
  "sima": 3379,
  "\u2581\u0935": 3380,
  "\u2581\u0643": 3381,
  "\u2581\u0627\u0648\u06be\u0627\u0646": 3382,
  "\u0aaf": 3383,
  ".\u00bb": 3384,
  "\u0e31": 3385,
  "ket": 3386,
  "\u2581dem": 3387,
  "rie": 3388,
  "shon": 3389,
  "rang": 3390,
  "\u2581\u0434\u0443": 3391,
  "\u2581ein": 3392,
  "del": 3393,
  "cy": 3394,
  "\u258113.": 3395,
  "stru": 3396,
  "\u2581gy": 3397,
  "000": 3398,
  "\u2581p\u00ebr": 3399,
  "\u0648\u0631": 3400,
  "\u2581bisa": 3401,
  "qi": 3402,
  "\u1021": 3403,
  "\u2581failed": 3404,
  "\u2581pra": 3405,
  "\u0446\u044c": 3406,
  "\u2581else": 3407,
  "\u0ab5\u0abe": 3408,
  "tie": 3409,
  "\u05d9\u05dd": 3410,
  "\u2581\u0d05": 3411,
  "\u2581conduct": 3412,
  "s\u00e9": 3413,
  "\u2581\u0938\u0947": 3414,
  "ef": 3415,
  "\u4e8b": 3416,
  "\u2581security": 3417,
  "\u2581format": 3418,
  "\u0142a": 3419,
  "mik": 3420,
  "\u2581\u06a9\u0631": 3421,
  "\u2581s\u00e9": 3422,
  "\u0b95\u0bcd": 3423,
  "\u0e34": 3424,
  "\u2581Sch": 3425,
  "ich": 3426,
  "\u2581d\u1ecb": 3427,
  "\u2581San": 3428,
  "\u258116.": 3429,
  "\u09af\u09bc": 3430,
  "\u0a9f": 3431,
  "\u2581paragraph": 3432,
  "\u0626\u064a": 3433,
  "\u0161a": 3434,
  "\u0b2a": 3435,
  "\u2581mingi": 3436,
  "\u2581pr": 3437,
  "\u0441\u0442\u0430": 3438,
  "\u10d4\u10d1": 3439,
  "\u2581Fi": 3440,
  "ras": 3441,
  "\u2581\u03bd\u03b1": 3442,
  "\u2581\u0ec1\u0ea5\u0eb0": 3443,
  "\u2581xban": 3444,
  "\u2581pour": 3445,
  "\u00f3w": 3446,
  "\u10d2": 3447,
  "way": 3448,
  "\u0442\u043e\u0440": 3449,
  "\u2581\u067e\u0627": 3450,
  "\u2581considered": 3451,
  "eka": 3452,
  "cz": 3453,
  "sun": 3454,
  "\u0161e": 3455,
  "\u2581\u0e82\u0ead\u0e87": 3456,
  "khe": 3457,
  "\u2581ngu": 3458,
  "pon": 3459,
  "\u2581sal": 3460,
  "\u2581stop": 3461,
  "\u2581\u0626\u06c7\u0644\u0627\u0631": 3462,
  "\u044b\u043d\u0434\u0430": 3463,
  "gang": 3464,
  "tay": 3465,
  "lic": 3466,
  "\u2581fully": 3467,
  "\u2581\u06a9\u0631\u062f": 3468,
  "\u0631\u0649": 3469,
  "\u0434\u043e": 3470,
  "\u2581less": 3471,
  "\u2581Failed": 3472,
  "\u2581won": 3473,
  "\u13b2": 3474,
  "\u2581Image": 3475,
  "\u2581kept": 3476,
  "all": 3477,
  "ako": 3478,
  "t\u00f3": 3479,
  "\u0997": 3480,
  "\u179c": 3481,
  "\u2581anda": 3482,
  "\u2581financial": 3483,
  "\u2581Ieova": 3484,
  "\u2581taught": 3485,
  "\u4e2d": 3486,
  "\u2581\u03c0": 3487,
  "\u0646\u06cc": 3488,
  "\u2581bala": 3489,
  "\u0d28\u0d4d": 3490,
  "gh": 3491,
  "dik": 3492,
  "\u2581Her": 3493,
  "uro": 3494,
  "\u099f": 3495,
  "\u03b8": 3496,
  "\u0c41": 3497,
  "\u2581walk": 3498,
  "\u0cca": 3499,
  "nden": 3500,
  "xo": 3501,
  "\u2581sins": 3502,
  "\u2581okuti": 3503,
  "\u0438\u0439": 3504,
  "\u2581\u0baa": 3505,
  "\u2581\u0623\u0646": 3506,
  "\u2581sister": 3507,
  "\u2581changed": 3508,
  "\u2581apostles": 3509,
  "\u2581\u0642\u0627": 3510,
  "\u2581muri": 3511,
  "\u2581eka": 3512,
  "\u2581rather": 3513,
  "\u4f1a": 3514,
  "stri": 3515,
  "\u2581\u043d\u044c": 3516,
  "\u2581\u045e": 3517,
  "\u2581maga": 3518,
  "\u2581Will": 3519,
  "\u0642\u0627": 3520,
  "\u10e3": 3521,
  "aq": 3522,
  "\u09c7\u09b0": 3523,
  "\u2581access": 3524,
  "\u2581esta": 3525,
  "\u2581sound": 3526,
  "nem": 3527,
  "ges": 3528,
  "\u0301\u0328": 3529,
  "\u13d9": 3530,
  "\u0996": 3531,
  "\u2581tua": 3532,
  "\u0437\u0430\u0440": 3533,
  "\u1791": 3534,
  "ord": 3535,
  "\u2581matters": 3536,
  "\u258115,": 3537,
  "mini": 3538,
  "\u057d": 3539,
  "\u0bbf\u0baf": 3540,
  "ley": 3541,
  "kor": 3542,
  "\u2581St": 3543,
  "\u2581\u06af": 3544,
  "tho": 3545,
  "\u130b": 3546,
  "\u0129": 3547,
  "khu": 3548,
  "put": 3549,
  "\u2581\u0a26\u0a47": 3550,
  "\u2581\u0641": 3551,
  "\u2581false": 3552,
  "aw": 3553,
  "\u2581products": 3554,
  "eli": 3555,
  "far": 3556,
  "\u2581J\u00e9hovah": 3557,
  "\u0440\u0430\u043d": 3558,
  "\u597d": 3559,
  "\u2581\u00e9s": 3560,
  "\u010bi": 3561,
  "\u2581CD": 3562,
  "\u2581anak": 3563,
  "\u0aae": 3564,
  "\u258117.": 3565,
  "\u2581\u0b95": 3566,
  "\u1014\u103a": 3567,
  "\u2581started": 3568,
  "\u2581yango": 3569,
  "\u10d4": 3570,
  "\u2581l\u00f3": 3571,
  "\u2581Such": 3572,
  "\u2581pea": 3573,
  "zione": 3574,
  "\u2581offer": 3575,
  "\u258132": 3576,
  "\u2581\u00e9\u00ed": 3577,
  "\u04b3\u043e": 3578,
  "\u2581tro": 3579,
  "tam": 3580,
  "\u043d\u044f": 3581,
  "\u2581View": 3582,
  "h\u00ed": 3583,
  "\u2581Egypt": 3584,
  "\u2581\u056f": 3585,
  "nen": 3586,
  "\u2581\u0bae": 3587,
  "tere": 3588,
  "\u25814,": 3589,
  "\u0631\u064a": 3590,
  "eri": 3591,
  "\u2581wong": 3592,
  "\u056f": 3593,
  "\u2581\u0434\u0430\u0440": 3594,
  "\u25815,": 3595,
  "\u0446\u0435": 3596,
  "\u25819,": 3597,
  "We": 3598,
  "wen": 3599,
  "\u2581\u0ea7\u0ec8\u0eb2": 3600,
  "ub": 3601,
  "\u17be": 3602,
  "\u09a5": 3603,
  "hy": 3604,
  "\u306b": 3605,
  "\u2581general": 3606,
  "usa": 3607,
  "har": 3608,
  "\u2581Nga": 3609,
  "\u2581subject": 3610,
  "rs": 3611,
  "\u2581sou": 3612,
  "\u4ee5": 3613,
  "if": 3614,
  "\u043e\u0440": 3615,
  "\u2581\u0644\u0627": 3616,
  "\u2581likely": 3617,
  "\u0433\u04d9\u043d": 3618,
  "\u010b": 3619,
  "\u0441\u0442\u043e": 3620,
  "\u1e0d": 3621,
  "ER": 3622,
  "\u2581loved": 3623,
  "qo": 3624,
  "\u05be": 3625,
  "\u2581\u0644\u0644": 3626,
  "\u099c": 3627,
  "\u2581shows": 3628,
  "\u2581\u043e\u043b": 3629,
  "\u2581\u0440\u0430\u0437": 3630,
  "\u0436\u0438": 3631,
  "\u2581iai": 3632,
  "\u043a\u044b": 3633,
  "leri": 3634,
  "\u2581Mary": 3635,
  "\u2581m\u00e1a": 3636,
  "kola": 3637,
  "\u2581kwi": 3638,
  "\u2581fan": 3639,
  "\u2581\u0995": 3640,
  "\u0644\u0627\u0631": 3641,
  "\u2581easy": 3642,
  "\u306f": 3643,
  "\u2581azo": 3644,
  "\u2581understanding": 3645,
  "\u2581market": 3646,
  "\u2581mail": 3647,
  "\u2581\u0915\u093e": 3648,
  "wy": 3649,
  "\u2581servant": 3650,
  "\u2581Mark": 3651,
  "\u2581Dan": 3652,
  "los": 3653,
  "\u03b7": 3654,
  "\u2581Oku": 3655,
  "dig": 3656,
  "\u043b\u0435\u043a": 3657,
  "\u0dc4": 3658,
  "\u0936": 3659,
  "tali": 3660,
  "lum": 3661,
  "\u0430\u0442\u044c": 3662,
  "ava": 3663,
  "pie": 3664,
  "\u2581People": 3665,
  "\u2581\u05e9": 3666,
  "zer": 3667,
  "\u1038": 3668,
  "\u00e1\u00e1": 3669,
  "\u093f\u0924": 3670,
  "\u2581Timothy": 3671,
  "\u0434\u0456": 3672,
  "\u0421": 3673,
  "\u2581seo": 3674,
  "\u2581lot": 3675,
  "\u2581\u0928": 3676,
  "\u2581decisions": 3677,
  "\u2581force": 3678,
  "\u2581aj": 3679,
  "\u2581involved": 3680,
  "\u258114:": 3681,
  "\u0916": 3682,
  "\u2581bes": 3683,
  "\u2581serious": 3684,
  "\u2581Save": 3685,
  "\u2581wat": 3686,
  "\u2581search": 3687,
  "\u0caa": 3688,
  "\u03bf\u03c5": 3689,
  "\u2581longer": 3690,
  "\u2581leswaku": 3691,
  "\u043e\u0433\u043e": 3692,
  "\u0995\u09c7": 3693,
  "ard": 3694,
  "\u2581Although": 3695,
  "ian": 3696,
  "\u2581das": 3697,
  "\u2581mpo": 3698,
  "\u09b2\u09c7": 3699,
  "phi": 3700,
  "\u0aaa": 3701,
  "\u2581Mai": 3702,
  "\u062a\u06d2": 3703,
  "car": 3704,
  "\u0434\u04d9": 3705,
  "\u2581\u0a2a": 3706,
  "\u043d\u044b\u0445": 3707,
  "\u2581sign": 3708,
  "\u2581Community": 3709,
  "\u2581\u12da": 3710,
  "\u2581sala": 3711,
  "\u2581pass": 3712,
  "\u101e": 3713,
  "ola": 3714,
  "\u0438\u0439\u043d": 3715,
  "\u05dd": 3716,
  "dah": 3717,
  "\u2581Judah": 3718,
  "hara": 3719,
  "mani": 3720,
  "hat": 3721,
  "\u062a\u0649": 3722,
  "sala": 3723,
  "\u00ebr": 3724,
  "\u2581accordance": 3725,
  "\u043d\u0438\u043d\u0433": 3726,
  "\u2581moun": 3727,
  "\u2581Good": 3728,
  "taka": 3729,
  "k\u00e1": 3730,
  "\u2581gift": 3731,
  "\u2581sisters": 3732,
  "\u25816,": 3733,
  "\u2581Vo": 3734,
  "lim": 3735,
  "\u09a6": 3736,
  "\u2581Er": 3737,
  "\u043c\u0430\u0441": 3738,
  "\u2581\u0458\u0435": 3739,
  "\u0aa1": 3740,
  "\u10ec": 3741,
  "\u2581Luke": 3742,
  "\u2581\u03b1": 3743,
  "\u2581sp": 3744,
  "\u2581referred": 3745,
  "\u2581Text": 3746,
  "\u2581vir": 3747,
  "\u0ca8\u0ccd\u0ca8\u0cc1": 3748,
  "\u2581appointed": 3749,
  "\u0d1f": 3750,
  "\u0435\u043d\u0438\u044f": 3751,
  "\u2581a\u00dfan": 3752,
  "\u0441\u04d9": 3753,
  "\u2581single": 3754,
  "\u2581apa": 3755,
  "\u2581protection": 3756,
  "\u2581held": 3757,
  "amba": 3758,
  "\u2581Since": 3759,
  "\u2581colour": 3760,
  "ES": 3761,
  "\u1000\u103a": 3762,
  "\u2581truly": 3763,
  "\u2581listen": 3764,
  "ong": 3765,
  "\u044d\u0440": 3766,
  "\u2581married": 3767,
  "\u2581places": 3768,
  "\u043b\u0438\u043a": 3769,
  "\u2581\u0439": 3770,
  "\u2581basis": 3771,
  "\u03bc\u03b1": 3772,
  "\u2581sacrifice": 3773,
  "\u2581evidence": 3774,
  "k\u00f3": 3775,
  "\u2581dina": 3776,
  "\u0117": 3777,
  "\u2581sheep": 3778,
  "\u2581xu": 3779,
  "\u1eb9": 3780,
  "\u2581\u041c\u0430": 3781,
  "\u2581tab": 3782,
  "\u0695\u0627\u0633\u062a\u06cc": 3783,
  "\u2581six": 3784,
  "r\u00e8": 3785,
  "\u10e5": 3786,
  "\u03c1": 3787,
  "\u0ccd": 3788,
  "\u1799": 3789,
  "\u0442\u044c": 3790,
  "\u2581tat": 3791,
  "ov": 3792,
  "\u2581ikke": 3793,
  "gli": 3794,
  "\u03b4": 3795,
  "\u2581\u1ecb": 3796,
  "\u04e9\u043d": 3797,
  "\u0ca3": 3798,
  "\u0435\u043b": 3799,
  "\u2581project": 3800,
  "\u03b5\u03af": 3801,
  "part": 3802,
  "\u0eb5": 3803,
  "don": 3804,
  "\u0928\u094d": 3805,
  "\u094d\u092f\u093e": 3806,
  "\u2581choose": 3807,
  "\u2581\u0ec0\u0e9b\u0eb1\u0e99": 3808,
  "\u2581ago": 3809,
  "\u2581n\u00e1": 3810,
  "\u2581w\u00f3": 3811,
  "\u2581\u12a5\u12e9": 3812,
  "\u2581Okay": 3813,
  "\u2581\u0c06": 3814,
  "\u2581Consider": 3815,
  "iso": 3816,
  "\u25818,": 3817,
  "ula": 3818,
  "\u2581issue": 3819,
  "\u0578\u057e": 3820,
  "\u0e2d": 3821,
  "\u011b": 3822,
  "tti": 3823,
  "\u0b9a": 3824,
  "\u2581disc": 3825,
  "\u2581naga": 3826,
  "elle": 3827,
  "rik": 3828,
  "\u2581kin": 3829,
  "hen": 3830,
  "stre": 3831,
  "\u2581dis": 3832,
  "30": 3833,
  "\u043f\u0435": 3834,
  "\u0aa8\u0ac7": 3835,
  "sor": 3836,
  "\u2581\u0915\u094b": 3837,
  "\u2581source": 3838,
  "\u2581Noah": 3839,
  "dz": 3840,
  "\u2581\u1000": 3841,
  "\u2581esi": 3842,
  "\u2581Would": 3843,
  "\u0649": 3844,
  "\u00f6r": 3845,
  "\u2581nge": 3846,
  "\u0631\u0648\u0647": 3847,
  "ndra": 3848,
  "\u2581resurrection": 3849,
  "\u2581wants": 3850,
  "\u0438\u043c": 3851,
  "\u2581Car": 3852,
  "kuti": 3853,
  "\u0565": 3854,
  "50": 3855,
  "r\u00f2": 3856,
  "\u0e49": 3857,
  "\u2581indi": 3858,
  "ithe": 3859,
  "\u2581\u0447\u0438": 3860,
  "\u2581enda": 3861,
  "\u09a1": 3862,
  "mine": 3863,
  "oj": 3864,
  "\u2581attitude": 3865,
  "\u2581\u0425": 3866,
  "\u2581\u0dc3": 3867,
  "\u00f8r": 3868,
  "\u2581history": 3869,
  "\u2581morning": 3870,
  "\u2581Create": 3871,
  "\u2581efforts": 3872,
  "\u13ac": 3873,
  "line": 3874,
  "\u2581Qu": 3875,
  "\u258160": 3876,
  "\u0111": 3877,
  "\u2581drink": 3878,
  "\u2581)": 3879,
  "\u2581c\u00f3": 3880,
  "\u13f3": 3881,
  "\u2581\u0cac": 3882,
  "gwa": 3883,
  "IN": 3884,
  "\u0627\u0628": 3885,
  "\u2581While": 3886,
  "\u0445\u0438": 3887,
  "\u2581wait": 3888,
  "\u0161i": 3889,
  "ado": 3890,
  "\u0561\u0575": 3891,
  "\u2581training": 3892,
  "\u2581Ze": 3893,
  "\u2581\u0ba4": 3894,
  "tet": 3895,
  "\u2581Ai": 3896,
  "uka": 3897,
  "\u0436\u0430": 3898,
  "\u2581\u0b8e": 3899,
  "\u2581job": 3900,
  "\u2581million": 3901,
  "\u2581Does": 3902,
  "\u0430\u0430": 3903,
  "+": 3904,
  "\u05d9": 3905,
  "lela": 3906,
  "stro": 3907,
  "\u2581spoke": 3908,
  "\u2581\u044f\u043a": 3909,
  "\u2581location": 3910,
  "star": 3911,
  "zya": 3912,
  "\u0dcf": 3913,
  "v\u00e9": 3914,
  "\u2581\u041f\u043e": 3915,
  "\u2581behind": 3916,
  "\u0ba9": 3917,
  "\u10e7": 3918,
  "\u10e2": 3919,
  "\u2581judgment": 3920,
  "\u2581Hey": 3921,
  "\u2581quality": 3922,
  "\u094b\u0902": 3923,
  "\u2581ket": 3924,
  "jet": 3925,
  "\u0c32\u0c4b": 3926,
  "\u2581revealed": 3927,
  "\u2581anga": 3928,
  "\u0698": 3929,
  "\u2581net": 3930,
  "\u2581\u0639\u0644\u0649": 3931,
  "\u2581eye": 3932,
  "\u2581Cor": 3933,
  "\u2581rule": 3934,
  "kana": 3935,
  "\u0f7c\u0f51": 3936,
  "\u0430\u0441": 3937,
  "\u2581ol": 3938,
  "\u0442\u0430\u0439": 3939,
  "\u2581\u305f": 3940,
  "ties": 3941,
  "\u258124:": 3942,
  "ys": 3943,
  "\u0915\u094d": 3944,
  "l\u0259r": 3945,
  "\u2581\u0447\u0435": 3946,
  "\u5bf9": 3947,
  "tat": 3948,
  "\u2581leen": 3949,
  "dis": 3950,
  "llu": 3951,
  "\u2581play": 3952,
  "rat": 3953,
  "\u2581\u0444": 3954,
  "\u2581specific": 3955,
  "\u2581\u3066": 3956,
  "\u2581\u0645\u0627\u0646": 3957,
  "fon": 3958,
  "\u2581\u04a1": 3959,
  "\u03cd": 3960,
  "\u00e4n": 3961,
  "\u0bb0\u0bc1": 3962,
  "\u2581\u0433": 3963,
  "\u043c\u04d9": 3964,
  "nsa": 3965,
  "lak": 3966,
  "\u2581parti": 3967,
  "\u2581\u09b9": 3968,
  "ob": 3969,
  "\u2581\u10db": 3970,
  "dem": 3971,
  "\u2581\u0417\u0430": 3972,
  "\u2581\u0d15": 3973,
  "\u2581whatever": 3974,
  "\u06af\u06d5": 3975,
  "ici": 3976,
  "nti": 3977,
  "\u6cd5": 3978,
  "\u2581\u06c1\u0645": 3979,
  "\u2581Kristo": 3980,
  "\u25aa": 3981,
  "\u2581yourselves": 3982,
  "\u2581results": 3983,
  "\u2581\u1794\u17b6\u1793": 3984,
  "\u2581foki": 3985,
  "\u2581Ex": 3986,
  "\u2581res": 3987,
  "\u2581god": 3988,
  "\u2581signs": 3989,
  "\u2581kuri": 3990,
  "\u2581Ch": 3991,
  "\u2581complete": 3992,
  "\u13e9": 3993,
  "\u2581Unable": 3994,
  "lie": 3995,
  "vit": 3996,
  "ON": 3997,
  "\u2581\u00e4r": 3998,
  "\u2581guidance": 3999,
  "\u00fcr": 4000,
  "\u0c46": 4001,
  "kre": 4002,
  "\u2581include": 4003,
  "\u0baa": 4004,
  "ffi": 4005,
  "\u2581any\u1ecb": 4006,
  "eh": 4007,
  "\u00ean": 4008,
  "\u05bf": 4009,
  "\u2581ande": 4010,
  "\u2581server": 4011,
  "\u2581covenant": 4012,
  "fen": 4013,
  "\u2581kom": 4014,
  "\u2581\u0cb9": 4015,
  "\u2581Like": 4016,
  "\u062e\u062a": 4017,
  "\u308b": 4018,
  "\u2581chic": 4019,
  "gue": 4020,
  "\u0d38\u0d4d": 4021,
  "\u2581\u13a8\u13d2": 4022,
  "\u2581taimi": 4023,
  "\u258135": 4024,
  "\u2581\u00f1u": 4025,
  "bwe": 4026,
  "lom": 4027,
  "\u092f\u093e": 4028,
  "het": 4029,
  "\u2581feelings": 4030,
  "\u2581looking": 4031,
  "--": 4032,
  "oti": 4033,
  "\u2581ancient": 4034,
  "ms": 4035,
  "\u2581inte": 4036,
  "\u2581\u06be": 4037,
  "\u2581either": 4038,
  "\u10f2": 4039,
  "\u0d24\u0d4d\u0d24": 4040,
  "\u0435\u0448": 4041,
  "\u2581\u178a\u17c2\u179b": 4042,
  "\u2581everyone": 4043,
  "\u2581untuk": 4044,
  "\u2581\u092a\u0930": 4045,
  "\u04d1\u0440": 4046,
  "\u2581\u0634": 4047,
  "igi": 4048,
  "\u0431\u0430\u0440": 4049,
  "\u2581fakama": 4050,
  "\u2581k\u00f2": 4051,
  "\u2581\u0ab8": 4052,
  "\u0924\u0947": 4053,
  "\u2581run": 4054,
  "g\u0127": 4055,
  "\u2581chu": 4056,
  "inga": 4057,
  "\u2581Ama": 4058,
  "\u2581session": 4059,
  "\u2581kun": 4060,
  "\u2581Det": 4061,
  "fin": 4062,
  "\u2581draw": 4063,
  "\u2581pod": 4064,
  "\u2581ban": 4065,
  "\u044d\u043b": 4066,
  "\u0cb0\u0cc1": 4067,
  "kel": 4068,
  "\u2060": 4069,
  "\u2581\u067e\u0648\u0621": 4070,
  "\u2581Sam": 4071,
  "bona": 4072,
  "ou": 4073,
  "\u2581test": 4074,
  "\u05da": 4075,
  "\u2581business": 4076,
  "\u0a1f": 4077,
  "iri": 4078,
  "may": 4079,
  "\u041d": 4080,
  "\u2581total": 4081,
  "\u0441\u0442\u0438": 4082,
  "uko": 4083,
  "ence": 4084,
  "\u0443\u0430": 4085,
  "\u0644\u0649\u0642": 4086,
  "\u2581final": 4087,
  "lit": 4088,
  "\u122a": 4089,
  "\u10de": 4090,
  "\u2581mentioned": 4091,
  "\u2581shown": 4092,
  "\u2581punishment": 4093,
  "q\u00dfue": 4094,
  "\u2581Greek": 4095,
  "sal": 4096,
  "\u2581Corinthians": 4097,
  "\u0631\u0648": 4098,
  "\u17b8": 4099,
  "\u2581\u0a05": 4100,
  "\u0a23": 4101,
  "\u2581fell": 4102,
  "\u2581art": 4103,
  "zzjoni": 4104,
  "\u2581reward": 4105,
  "\u2581Jacob": 4106,
  "\u2581Their": 4107,
  "d\u00e1": 4108,
  "\u2581daughter": 4109,
  "\u2581Y\u00e0lla": 4110,
  "\u4e0b": 4111,
  "\u0cb9": 4112,
  "\u2581Acts": 4113,
  "\u2581obey": 4114,
  "\u2581Internet": 4115,
  "\u1348": 4116,
  "\u2581established": 4117,
  "\u2581kill": 4118,
  "tic": 4119,
  "\u2581\u0915\u093f": 4120,
  "\u2581organization": 4121,
  "\u2581\u092f\u093e": 4122,
  "qar": 4123,
  "\u2581\u0632": 4124,
  "\u6765": 4125,
  "cher": 4126,
  "\u0433\u044b": 4127,
  "cent": 4128,
  "iro": 4129,
  "iya": 4130,
  "\u1796": 4131,
  "\u2581role": 4132,
  "\u2581\u06cc\u06c1": 4133,
  "ID": 4134,
  "\u06a9\u0627\u0646": 4135,
  "mai": 4136,
  "\u2581\u0448\u0443": 4137,
  "\u12dd": 4138,
  "\u2581a\u00f0": 4139,
  "\u13f4": 4140,
  "\u0646\u06d2": 4141,
  "kri": 4142,
  "\u2581\u00e7": 4143,
  "\u2581\u1785": 4144,
  "\u2581st": 4145,
  "\u0930\u0940": 4146,
  "\u2581room": 4147,
  "tima": 4148,
  "\u2581kuwi": 4149,
  "\u2581Proverbs": 4150,
  "\u0c3f": 4151,
  "form": 4152,
  "\u122e": 4153,
  "\u2581Mat": 4154,
  "nce": 4155,
  "\u2581kuba": 4156,
  "\u2581mes": 4157,
  "tud": 4158,
  "\u05e0": 4159,
  "\u2581tur": 4160,
  "\u2581raised": 4161,
  "m\u0101": 4162,
  "\u2581\u091c\u093e": 4163,
  "rom": 4164,
  "\u0e1e": 4165,
  "\u2581video": 4166,
  "lon": 4167,
  "ssen": 4168,
  "\u2581Today": 4169,
  "sso": 4170,
  "\u2581\u03bc\u03b5": 4171,
  "\u2581vor": 4172,
  "\u2581ngi": 4173,
  "\u10dc": 4174,
  "\u0cbf\u0cb8": 4175,
  "\u044b\u0439": 4176,
  "\u2581\u04af\u0437": 4177,
  "\u0e04": 4178,
  "\u0643\u0649": 4179,
  "\u2581\u09a8\u09bf": 4180,
  "\u2581comfort": 4181,
  "\u2581states": 4182,
  "rre": 4183,
  "\u0644\u0647": 4184,
  "\u2581standards": 4185,
  "\u2581nau": 4186,
  "\u2581cui": 4187,
  "r\u00fa": 4188,
  "\u2581mbi": 4189,
  "\u2581baa": 4190,
  "gun": 4191,
  "\u2581\u0417": 4192,
  "\u0a97": 4193,
  "\u06a9\u06cc": 4194,
  "\u0ddc": 4195,
  "\u2581manu": 4196,
  "ller": 4197,
  "\u0443\u043d": 4198,
  "\u0448\u044c": 4199,
  "\u2581\u0e84\u0ea7\u0eb2\u0ea1": 4200,
  "\u2581alle": 4201,
  "\u043e\u0441": 4202,
  "\u0bcb": 4203,
  "\u2581doubt": 4204,
  "\u2581various": 4205,
  "lis": 4206,
  "\u2581Look": 4207,
  "\u2581vy": 4208,
  "amo": 4209,
  "\u0cb3": 4210,
  "\u2581ste": 4211,
  "umu": 4212,
  "nze": 4213,
  "oku": 4214,
  "\u2581poor": 4215,
  "\u2581path": 4216,
  "\u2581ready": 4217,
  "\u0b15\u0b41": 4218,
  "\u2581First": 4219,
  "\u2581este": 4220,
  ">": 4221,
  "\u0f0b\u0f56": 4222,
  "\u00f1o": 4223,
  "\u12d3": 4224,
  "\u2581\u13e7": 4225,
  "=": 4226,
  "ima": 4227,
  "\u2581\u0438\u0441": 4228,
  "\u2581tree": 4229,
  "m\u00e1": 4230,
  "\u0c2e": 4231,
  "\u0259n": 4232,
  "ffe": 4233,
  "\u2581increase": 4234,
  "k\u00f2": 4235,
  "\u2581killed": 4236,
  "\u2581tri": 4237,
  "nne": 4238,
  "\u2581\u0628\u0649\u0644\u06d5\u0646": 4239,
  "and": 4240,
  "g\u0127a": 4241,
  "\u2581Edit": 4242,
  "\u0927": 4243,
  "\u0438\u0439\u0433": 4244,
  "\u090f": 4245,
  "\u2581\u062f\u0627": 4246,
  "\u00e9e": 4247,
  "\u0415": 4248,
  "\u043e\u043b": 4249,
  "\u2581month": 4250,
  "\u044d\u0445": 4251,
  "\u25819:": 4252,
  "\u2581cut": 4253,
  "\u2581b\u00ed": 4254,
  "\u00e1t": 4255,
  "mut": 4256,
  "\u2581cuan": 4257,
  "ime": 4258,
  "\u0d31\u0d46": 4259,
  "\u2581ame": 4260,
  "ii": 4261,
  "\u2581none": 4262,
  "\u2581\u0427": 4263,
  "kira": 4264,
  "\u2581economic": 4265,
  "\u2581events": 4266,
  "lala": 4267,
  "\u044b\u043d\u0430": 4268,
  "\u2581tidak": 4269,
  "\u2581myself": 4270,
  "asi": 4271,
  "\u0628\u0627": 4272,
  "\u2581English": 4273,
  "\u0d28": 4274,
  "\u2581\u03c4\u03bf": 4275,
  "\u2581noa": 4276,
  "\u2581born": 4277,
  "gha": 4278,
  "\u2581James": 4279,
  "rak": 4280,
  "\u10da": 4281,
  "\u2581\u0565\u0582": 4282,
  "\u2581\u1780": 4283,
  "\u2581bear": 4284,
  "\u0441\u0443": 4285,
  "kah": 4286,
  "atu": 4287,
  "\u2581trans": 4288,
  "\u2581natural": 4289,
  "\u2581doesn": 4290,
  "\u2581post": 4291,
  "\u2581areas": 4292,
  "cin": 4293,
  "\u1004\u103a\u1038": 4294,
  "ese": 4295,
  "hana": 4296,
  "\u0a38\u0a3c": 4297,
  "\u09ae\u09be": 4298,
  "\u2581\u0917": 4299,
  "\u2581Y\u00e9huwah": 4300,
  "\u0dba\u0dd2": 4301,
  "\u2581creation": 4302,
  "\u2581\u062c": 4303,
  "\u2581fight": 4304,
  "\u2581ved": 4305,
  "\u2581oko": 4306,
  "n\u00eb": 4307,
  "stan": 4308,
  "\u06be\u0648": 4309,
  "\u2581\u0574": 4310,
  "\u2581alla": 4311,
  "ros": 4312,
  "yin": 4313,
  "action": 4314,
  "n\u00e1": 4315,
  "\u2581Ab": 4316,
  "\u258117:": 4317,
  "\u2581hono": 4318,
  "\u2581suffering": 4319,
  "\u044d": 4320,
  "\u0648\u0627\u0646": 4321,
  "!\"": 4322,
  "bit": 4323,
  "\u2581takes": 4324,
  "\u049f\u0430": 4325,
  "\u0437\u0443": 4326,
  "\u041c": 4327,
  "d\u0259n": 4328,
  "pra": 4329,
  "\u0648\u0645": 4330,
  "\u2581urang": 4331,
  "\u043d\u0438\u0439": 4332,
  "mati": 4333,
  "\u2581\u0432\u044b": 4334,
  "\u2581l\u00e9": 4335,
  "\u03c1\u03b1": 4336,
  "unga": 4337,
  "\u0c30\u0c3f": 4338,
  "\u2581mal": 4339,
  "\u0443\u043b": 4340,
  "\u2581named": 4341,
  "\u2581panag": 4342,
  "\u2581cum": 4343,
  "\u2581ensure": 4344,
  "ute": 4345,
  "\u0644\u0649\u0631\u0649": 4346,
  "\u04bb": 4347,
  "\u2581dal": 4348,
  "kara": 4349,
  "sika": 4350,
  "\u25817,": 4351,
  "\u2581feet": 4352,
  "\u2581Search": 4353,
  "\u2581\u0a2e": 4354,
  "\u0aa8\u0abe": 4355,
  "til": 4356,
  "\u1e63": 4357,
  "\u2581followed": 4358,
  "\u2581\u0db4": 4359,
  "\u2581\u0939\u094b": 4360,
  "\u0c35\u0c3e": 4361,
  "h\u00e1": 4362,
  "\u0441\u0435\u043d": 4363,
  "mise": 4364,
  "\u2581\u03c4\u03b7\u03c2": 4365,
  "nene": 4366,
  "\u2581Set": 4367,
  "\u2581\u179a": 4368,
  "\u2581trying": 4369,
  "\u2581\u0cb8": 4370,
  "\u0642\u0649": 4371,
  "\u2581several": 4372,
  "\u2581actually": 4373,
  "\u2581\u042f": 4374,
  "\u2581government": 4375,
  "\u2581imitate": 4376,
  "\u2581regarding": 4377,
  "\u03b2": 4378,
  "\u8981": 4379,
  "\u03c1\u03bf": 4380,
  "\u0ab6": 4381,
  "\u2581\u0e84\u0ebb\u0e99": 4382,
  "AN": 4383,
  "\u2581fast": 4384,
  "\u12cb": 4385,
  "\u2581enggau": 4386,
  "ance": 4387,
  "uni": 4388,
  "\u2581offering": 4389,
  "\u10d6": 4390,
  "\u2581tale": 4391,
  "utu": 4392,
  "ith": 4393,
  "\u2581Ua": 4394,
  "\u2581lived": 4395,
  "\u2581examples": 4396,
  "dra": 4397,
  "\u2581Remove": 4398,
  "\u2581status": 4399,
  "\u1010\u103a": 4400,
  "\u3057": 4401,
  "\u179f\u17d2": 4402,
  "ee": 4403,
  "tara": 4404,
  "\u2581authorities": 4405,
  "\u04ad": 4406,
  "\u043b\u04d1": 4407,
  "leke": 4408,
  "\u2581sama": 4409,
  "long": 4410,
  "t\u00e4": 4411,
  "\u2581Faka": 4412,
  "\u2581\u0c86": 4413,
  "\u2581\u00fe": 4414,
  "\u2581Annex": 4415,
  "\u0448\u0438": 4416,
  "\u2581preach": 4417,
  "\u0443\u0432\u0430": 4418,
  "\u2581qualities": 4419,
  "\u0b41": 4420,
  "\u2581everlasting": 4421,
  "\u2581\u1010": 4422,
  "\u09a3": 4423,
  "\u2581build": 4424,
  "\u2581\u049b\u0430": 4425,
  "\u2581priest": 4426,
  "\u2581Directive": 4427,
  "llo": 4428,
  "moni": 4429,
  "spe": 4430,
  "\u2581rej": 4431,
  "\u2581getting": 4432,
  "rd": 4433,
  "ino": 4434,
  "\u2581nde": 4435,
  "\u0c26": 4436,
  "zy": 4437,
  "\u2581\u101e\u100a\u103a": 4438,
  "\u04d7\u0440": 4439,
  "\u2581\u09a6": 4440,
  "\u2581itself": 4441,
  "\u2581promised": 4442,
  "\u2581showed": 4443,
  "\u2581followers": 4444,
  "\u00f6n": 4445,
  "\u2581b\u1ee5": 4446,
  "mail": 4447,
  "\u2581\u0b2a": 4448,
  "\u0561\u057f": 4449,
  "\u2581deal": 4450,
  "k\u1ecd": 4451,
  "\u2581tr": 4452,
  "\u043d\u0430\u0440": 4453,
  "\u2581fruit": 4454,
  "\u2581Here": 4455,
  "\u0baa\u0bcd\u0baa": 4456,
  "\u0933": 4457,
  "\u2581praise": 4458,
  "\u2581Ad": 4459,
  "\u0578\u0580": 4460,
  "\u2581\u06d4": 4461,
  "\u2581Samuel": 4462,
  "\u2581\u1780\u17b6\u179a": 4463,
  "\u258118.": 4464,
  "\u102f": 4465,
  "\u2581\u0434\u0438": 4466,
  "\u2581option": 4467,
  "bb": 4468,
  "\u0937": 4469,
  "\u0b23": 4470,
  "ika": 4471,
  "\u2581\u13c4": 4472,
  "\u2581\u12d8": 4473,
  "nnen": 4474,
  "zvo": 4475,
  "\u03c3\u03b7": 4476,
  "ntes": 4477,
  "\u2581actions": 4478,
  "\u2581ubu": 4479,
  "ille": 4480,
  "d\u00ed": 4481,
  "\u2581honor": 4482,
  "\u2581circumstances": 4483,
  "\u05d9\u05e7": 4484,
  "eta": 4485,
  "\u0ba9\u0bcd": 4486,
  "\u13cd\u13a9": 4487,
  "cul": 4488,
  "\u2581gan": 4489,
  "He": 4490,
  "\u2581led": 4491,
  "\u2581deeds": 4492,
  "\u2581\u0431\u044b": 4493,
  "\u0151": 4494,
  "\u2581baba": 4495,
  "\u2581individuals": 4496,
  "\u2581Jes\u00fas": 4497,
  "\u2581Eli": 4498,
  "m\u0259": 4499,
  "\u10d9": 4500,
  "lele": 4501,
  "\u0cc1\u0cb5": 4502,
  "15": 4503,
  "\u044d\u043d": 4504,
  "\u0b32": 4505,
  "\u2581Sta": 4506,
  "\u2581mill": 4507,
  "\u2581slave": 4508,
  "like": 4509,
  "\u0435\u043d\u0438\u0435": 4510,
  "\u2581related": 4511,
  "bele": 4512,
  "\u2581mg": 4513,
  "\u3092": 4514,
  "\u2581commanded": 4515,
  "tani": 4516,
  "\u2581\u091c": 4517,
  "\u2581\u0c87": 4518,
  "\u13e3": 4519,
  "lary": 4520,
  "dze": 4521,
  "\u2581Aba": 4522,
  "\u2581Romans": 4523,
  "\u2581l\u00e1": 4524,
  "\u2581loo": 4525,
  "\u2581tia": 4526,
  "gon": 4527,
  "\u0646\u06be\u0646": 4528,
  "stat": 4529,
  "\u2581allowed": 4530,
  "\u043c\u0443": 4531,
  "\u0b30\u0b4d": 4532,
  "\u2581concerned": 4533,
  "hay": 4534,
  "\u0f5a": 4535,
  "\u2581hal": 4536,
  "\u04af\u0440": 4537,
  "\u308a": 4538,
  "tanga": 4539,
  "\u2581d\u00e1": 4540,
  "\u2581determined": 4541,
  "\u2581rules": 4542,
  ")\u060c": 4543,
  "\u2581\u0130": 4544,
  "gira": 4545,
  "\u2581\u0909": 4546,
  "\u10d3": 4547,
  "banga": 4548,
  "y\u00e9": 4549,
  "sem": 4550,
  "\u2581gone": 4551,
  "\u2581ren": 4552,
  "\u5927": 4553,
  "\u0446\u0456": 4554,
  "\u057b": 4555,
  "\u2581opened": 4556,
  "\u2581l\u0113": 4557,
  "\u2581taha": 4558,
  "\u2581bol": 4559,
  "vaka": 4560,
  "\u2581kh\u00f4ng": 4561,
  "\u2581due": 4562,
  "\u2581user": 4563,
  "\u2581hours": 4564,
  "\u2581\u13e5": 4565,
  "\u2581jeung": 4566,
  "\u043b\u0435\u043d": 4567,
  "\u2581lay": 4568,
  "\u0bb2\u0bcd": 4569,
  "\u09ac\u09be": 4570,
  "\u2581naa": 4571,
  "\u56fd": 4572,
  "\u1ebd": 4573,
  "\u06cc\u0646": 4574,
  "\u062f\u06d5": 4575,
  "\u2581hour": 4576,
  "\u0f44": 4577,
  "\u0ca4": 4578,
  "\u0561\u0581": 4579,
  "\u2581kada": 4580,
  "\u2581\u0627\u06cc\u0634\u0627\u0646": 4581,
  "\u2581\u10e1\u10d0": 4582,
  "\u2581sida": 4583,
  "\u0b9f\u0bcd\u0b9f": 4584,
  "\u2581fall": 4585,
  "\u2581relevant": 4586,
  "\u30fc": 4587,
  "\u2581\u0d2a": 4588,
  "\u2581\u0ea7\u0eb2": 4589,
  "\u2581focus": 4590,
  "\u0932\u0940": 4591,
  "ulo": 4592,
  "\u2581Dr": 4593,
  "\u2581\u00c9": 4594,
  "\u2581meaning": 4595,
  "\u2581\u04b3": 4596,
  "\u0948": 4597,
  "\u0648\u062f": 4598,
  "yar": 4599,
  "\u0ec2\u0eab": 4600,
  "llen": 4601,
  "\u0107e": 4602,
  "\u2581class": 4603,
  "\u2581opportunity": 4604,
  "\u2581\u0ba8": 4605,
  "\u0441\u043a\u0438": 4606,
  "vet": 4607,
  "\u0e40": 4608,
  "\u0644\u064a": 4609,
  "ction": 4610,
  "\u2581\u1787\u17b6": 4611,
  "\u00e2n": 4612,
  "tit": 4613,
  "\u2581\u0422\u043e": 4614,
  "\u2581\u041c": 4615,
  "\u0d42": 4616,
  "\u2581Uni": 4617,
  "tions": 4618,
  "nsi": 4619,
  "taa": 4620,
  "zar": 4621,
  "\u2581\u0628\u0627\u0644": 4622,
  "\u2581tuku": 4623,
  "\u13da": 4624,
  "\u043b\u0435\u0440": 4625,
  "ug": 4626,
  "\u0443\u0434": 4627,
  "hel": 4628,
  "\u2581happen": 4629,
  "\u0ebb": 4630,
  "\u2581como": 4631,
  "\u2581strengthen": 4632,
  "\u2581System": 4633,
  "\u2581\u0d06": 4634,
  "\u2581provisions": 4635,
  "rira": 4636,
  "\u2581believed": 4637,
  "\u2581\u00bf": 4638,
  "\u043e\u0443": 4639,
  "\u0631\u0629": 4640,
  "\u0435\u0434": 4641,
  "\u09cd\u09af\u09be": 4642,
  "\u0435\u0438": 4643,
  "\u0e48": 4644,
  "\u2581Dis": 4645,
  "\u0d39": 4646,
  "w\u00e9": 4647,
  "\u0569": 4648,
  "\u2581tax": 4649,
  "non": 4650,
  "\u2581cast": 4651,
  "\u2581saved": 4652,
  "\u2581main": 4653,
  "jek": 4654,
  "\u2581education": 4655,
  "\u2581political": 4656,
  "\u2581sight": 4657,
  "\u05dc\u05e2": 4658,
  "\u2581Other": 4659,
  "tok": 4660,
  "\u05d5\u05ea": 4661,
  "\u2581Paulo": 4662,
  "\u2581b\u00e9": 4663,
  "symbols": 4664,
  "\u2581\u0ea1\u0eb5": 4665,
  "\u2581Africa": 4666,
  "\u044f\u0442": 4667,
  "i\u0148": 4668,
  "\u2581dha": 4669,
  "\u2581direction": 4670,
  "\u043e\u0439": 4671,
  "jel": 4672,
  "\u2581umu": 4673,
  "\u2581Ce": 4674,
  "\u0a21": 4675,
  "\u2581\u0ec0\u0ea2": 4676,
  "\u06cc\u0634": 4677,
  "\u2581\u0625": 4678,
  "\u04e9\u04e9": 4679,
  "w\u00f3": 4680,
  "\u10d4\u10dc": 4681,
  "gre": 4682,
  "\u10d3\u10d0": 4683,
  "dit": 4684,
  "y\u0148": 4685,
  "\u1323": 4686,
  "\u2581ho\u00ea": 4687,
  "\u2581modern": 4688,
  "vin": 4689,
  "\u2581reach": 4690,
  "\u2581\u00bb,": 4691,
  "\u062f\u0648": 4692,
  "\u2581moko": 4693,
  "\u2581\u0422\u0430": 4694,
  "\u05f2\u05b7": 4695,
  "\u043a\u0456": 4696,
  "\u2581Creator": 4697,
  "\u5730": 4698,
  "\u2581\u043f\u043e\u0434": 4699,
  "\u2581\u0421\u043e": 4700,
  "\u2581policy": 4701,
  "\u2581\u0a28\u0a42\u0a70": 4702,
  "\u304b": 4703,
  "\u03c9\u03bd": 4704,
  "\u2581mode": 4705,
  "\u2581\u062e\u062f\u0627": 4706,
  "\u2581clean": 4707,
  "\u03c1\u03b9": 4708,
  "kki": 4709,
  "usi": 4710,
  "\u2581kuwa": 4711,
  "\u2581mbeni": 4712,
  "ero": 4713,
  "gna": 4714,
  "\u1203": 4715,
  "alo": 4716,
  "\u2581\u043a\u044b\u043b": 4717,
  "\u2581section": 4718,
  "kali": 4719,
  "\u2581War": 4720,
  "\u2581aye": 4721,
  "\u2581\u10e8\u10d4": 4722,
  "\u120a": 4723,
  "\u0a16": 4724,
  "\u13d5": 4725,
  "\u258114,": 4726,
  "\u2581K\u00e2cua\u00df": 4727,
  "nom": 4728,
  "\u2581December": 4729,
  "\u2581kor": 4730,
  "cio": 4731,
  "\u0446\u0430": 4732,
  "\u2581\u0436": 4733,
  "\u064a\u0648": 4734,
  "\u06cc\u06ba": 4735,
  "\u0433\u0435\u043d": 4736,
  "\u258116:": 4737,
  "\u05f2": 4738,
  "\u2581servi": 4739,
  "idad": 4740,
  "\u00e7i": 4741,
  "gh\u1ecb": 4742,
  "\u06af\u0627": 4743,
  "\u2581info": 4744,
  "\u2581Para": 4745,
  "\u2581\u0b9a": 4746,
  "\u2581\u0448": 4747,
  "\u2581chan": 4748,
  "unit": 4749,
  "\u4e3a": 4750,
  "iv": 4751,
  "\u2581super": 4752,
  "\u2581\u0432\u04d9": 4753,
  "\u2581progress": 4754,
  "ena": 4755,
  "\u2581\u043d\u04d5": 4756,
  "ral": 4757,
  "\u2581addition": 4758,
  "\u04e9\u0440": 4759,
  "tala": 4760,
  "\u2581freedom": 4761,
  "\u2581tawo": 4762,
  "\u2581ty": 4763,
  "zwe": 4764,
  "ifica": 4765,
  "\u2581\u0445\u0443": 4766,
  "\u2581space": 4767,
  "\u2581visit": 4768,
  "\u014d": 4769,
  "\u2581spiritually": 4770,
  "mpo": 4771,
  "\u2581Apa": 4772,
  "mwa": 4773,
  "\u2581\u12eb": 4774,
  "\u0ab9": 4775,
  "bay": 4776,
  "\u2581j\u00e9": 4777,
  "\u2581\u0c2a\u0c4d\u0c30": 4778,
  "m\u00e9": 4779,
  "\u2581\u0644\u0627\u0621": 4780,
  "\u2581\u0936": 4781,
  "\u2581mafai": 4782,
  "bet": 4783,
  "\u044d\u044d\u0440": 4784,
  "shu": 4785,
  "\u0cc0": 4786,
  "cor": 4787,
  "\u2581\u17a2\u17d2\u1793\u1780": 4788,
  "\u2581blessings": 4789,
  "\u2581request": 4790,
  "ret": 4791,
  "No": 4792,
  "\u120e": 4793,
  "\u2581company": 4794,
  "\u2581\u0642": 4795,
  "\u2581\u0628\u06cc": 4796,
  "\u12bd": 4797,
  "\u0c17\u0c3e": 4798,
  "\u0b39": 4799,
  "af": 4800,
  "\u04d7\u043d": 4801,
  "ciones": 4802,
  "\u2581c\u00e4": 4803,
  "\u2581office": 4804,
  "\u2581priests": 4805,
  "\u2581deep": 4806,
  "\u0641\u0627": 4807,
  "chen": 4808,
  "\u0d2a": 4809,
  "lam": 4810,
  "\u0d31": 4811,
  "\u2581imi": 4812,
  "\u062c\u06be": 4813,
  "\u0439\u044b": 4814,
  "ida": 4815,
  "\u0eb4": 4816,
  "\u2581\u0431\u0438\u043b": 4817,
  "\u2581simply": 4818,
  "\u10e4": 4819,
  "\u2581returned": 4820,
  "\u2581\u0939": 4821,
  "\u00fcl": 4822,
  "mek": 4823,
  "\u2581\u062a\u064a": 4824,
  "\u2581Gra": 4825,
  "\u2581laid": 4826,
  "kal": 4827,
  "\u2581\u0430\u0434": 4828,
  "ture": 4829,
  "\u2581\u0916": 4830,
  "\u0935\u0930": 4831,
  "\u2581Type": 4832,
  "\u51fa": 4833,
  "lai": 4834,
  "\u2581\u015e": 4835,
  "agi": 4836,
  "\u2581fun": 4837,
  "lus": 4838,
  "\u0454": 4839,
  "\u2581prayers": 4840,
  "\u010de": 4841,
  "\u2581standard": 4842,
  "tek": 4843,
  "art": 4844,
  "\u2581mouth": 4845,
  "\u2581\u00ea": 4846,
  "\u2581lor": 4847,
  "\u2581Right": 4848,
  "\u016f": 4849,
  "rish": 4850,
  "\u2581bilen": 4851,
  "\u2581Ser": 4852,
  "\u2581\u064a\u0627": 4853,
  "\u2581lautolu": 4854,
  "ec": 4855,
  "AS": 4856,
  "\u2581perhaps": 4857,
  "\u2581During": 4858,
  "\u04af\u043d": 4859,
  "\u2581\u0646\u06c1\u06cc\u06ba": 4860,
  "dre": 4861,
  "\u2581Revelation": 4862,
  "\u0433\u044a": 4863,
  "\u2581\u062c\u0646": 4864,
  "\u2581amount": 4865,
  "\u13ce": 4866,
  "\u2581kay": 4867,
  "lisa": 4868,
  "\u2581\u00fc\u00e7in": 4869,
  "kwu": 4870,
  "\u13b6": 4871,
  "\u091a\u0947": 4872,
  "\u2581short": 4873,
  "\u2581daga": 4874,
  "\u0ec0": 4875,
  "\u2581provides": 4876,
  "\u0925": 4877,
  "\u0441\u044b\u043d": 4878,
  "sjon": 4879,
  "sp": 4880,
  "\u2581Pri": 4881,
  "igu": 4882,
  "\u2581mere": 4883,
  "\u044f\u043d": 4884,
  "gga": 4885,
  "\u2581Ben": 4886,
  "Na": 4887,
  "\u2581bit": 4888,
  "Re": 4889,
  "\u0dc3\u0dca": 4890,
  "\u0627\u0646\u06cc": 4891,
  "\u2581Den": 4892,
  "\u2581din": 4893,
  "\u13e8": 4894,
  "\u2581s\u00ec": 4895,
  "\u2581requirements": 4896,
  "\u04ef": 4897,
  "\u2581\u0431\u0435\u043b\u04d9\u043d": 4898,
  "\u0645\u0649": 4899,
  "\u0930\u0947": 4900,
  "Ka": 4901,
  "\u2581dit": 4902,
  "\u2581lege": 4903,
  "ier": 4904,
  "\u2581mei": 4905,
  "BAR": 4906,
  "\u2581Get": 4907,
  "\u2581\u0626\u06c7": 4908,
  "\u2581behold": 4909,
  "\u2581Information": 4910,
  "\u2581chak": 4911,
  "tem": 4912,
  "\u0c17": 4913,
  "\u0633\u0649": 4914,
  "\u2581programme": 4915,
  "\u2581\u0906\u0939\u0947": 4916,
  "\u2581\u0a9b\u0ac7": 4917,
  "\u2581letter": 4918,
  "lat": 4919,
  "\u1213": 4920,
  "\u2581Parliament": 4921,
  "\u2581reg": 4922,
  "\u0121": 4923,
  "\u2581\u0645\u0648": 4924,
  "\u0a26\u0a3e": 4925,
  "\u2581t\u00ebn\u00eb": 4926,
  "\u2581Ng": 4927,
  "\u2581maintain": 4928,
  "\u2581Holy": 4929,
  "\u2581forward": 4930,
  "\u064a\u0631": 4931,
  "\u2581vil": 4932,
  "\u2581respond": 4933,
  "\u2581nakai": 4934,
  "\u0bbe\u0b95": 4935,
  "\u2581energy": 4936,
  "\u2581baka": 4937,
  "\u0f41": 4938,
  "\u2581\u1794\u17d2\u179a": 4939,
  "\u2581y\u00e2": 4940,
  "\u2581\u0411\u0430": 4941,
  "\u2581week": 4942,
  "\u1798\u17d2": 4943,
  "nyi": 4944,
  "jin": 4945,
  "\u2581\u25a1": 4946,
  "\u2581pos": 4947,
  "*": 4948,
  "\u2581ez": 4949,
  "st\u00e4": 4950,
  "lio": 4951,
  "dere": 4952,
  "\u2581legal": 4953,
  "tele": 4954,
  "mina": 4955,
  "\u0631\u0627\u0646": 4956,
  "\u2581half": 4957,
  "\u2581\u03c4\u03bf\u03c5": 4958,
  "\u2581thousand": 4959,
  "\u2581katoa": 4960,
  "\u2581instead": 4961,
  "\u0d30\u0d4d": 4962,
  "\u0d28\u0d4d\u0d28": 4963,
  "\u2581Ak": 4964,
  "\u2581\u0a26\u0a40": 4965,
  "\u2581;": 4966,
  "\u2581\u0438\u043b": 4967,
  "\u2581empty": 4968,
  "her": 4969,
  "\u2581hy": 4970,
  "\u0446\u04d9\u0430": 4971,
  "\u2581added": 4972,
  "\u2581cases": 4973,
  "\u2581mark": 4974,
  "\u2581noku": 4975,
  "\u0e2b": 4976,
  "\u258110,": 4977,
  "\u2581fl": 4978,
  "p\u00f2": 4979,
  "\u0645\u0646": 4980,
  "\u2581loyal": 4981,
  "lyk": 4982,
  "\u5c31": 4983,
  "\u2581#": 4984,
  "\u06ad": 4985,
  "\u2581remove": 4986,
  "\u2581mama": 4987,
  "\u0645\u0648\u0648": 4988,
  "\u2581bato": 4989,
  "yna": 4990,
  "\u0432\u0443": 4991,
  "\u03c4\u03b5": 4992,
  "\u0e42": 4993,
  "\u0d40": 4994,
  "\u258111,": 4995,
  "\u2581\u0daf": 4996,
  "fs": 4997,
  "cur": 4998,
  "\u2581regular": 4999,
  "mun": 5000,
  "\u2581\u0aac": 5001,
  "ori": 5002,
  "ew": 5003,
  "rem": 5004,
  "\u2581kur": 5005,
  "\u0c47": 5006,
  "\u2581\u03b5": 5007,
  "wn": 5008,
  "ril": 5009,
  "\u2581m\u00e1": 5010,
  "cie": 5011,
  "kh": 5012,
  "\u2581lin": 5013,
  "win": 5014,
  "\u0bc6": 5015,
  "j\u00fa": 5016,
  "\u0578\u0572": 5017,
  "nos": 5018,
  "\u2014": 5019,
  "\u2581dans": 5020,
  "ono": 5021,
  "\u2581tenamit": 5022,
  "gal": 5023,
  "\u2581Spirit": 5024,
  "\u0a39": 5025,
  "oa": 5026,
  "par": 5027,
  "oli": 5028,
  "\u2581tele": 5029,
  "dina": 5030,
  "\u0b9f": 5031,
  "\u0581": 5032,
  "\u2581\u0433\u0430": 5033,
  "\u2581table": 5034,
  "\u2581supported": 5035,
  "\u2581\u043f\u0430\u0440": 5036,
  "\u2581continued": 5037,
  "\u0eb8": 5038,
  "\u7528": 5039,
  "\u2581waka": 5040,
  "\u2581default": 5041,
  "\u0c42": 5042,
  "\u0915\u093e": 5043,
  "\u2581parau": 5044,
  "\u2581pot": 5045,
  "\u0c38": 5046,
  "\u05bc": 5047,
  "\u2581responsibility": 5048,
  "\u2581mereka": 5049,
  "\u2581i\u0161": 5050,
  "\u2581gain": 5051,
  "hin": 5052,
  "aha": 5053,
  "\u09a4\u09c7": 5054,
  "\u2581soo": 5055,
  "\u2581normal": 5056,
  "\u2581\u0e81\u0eb2\u0e99": 5057,
  "\u2581speaking": 5058,
  "l\u012b": 5059,
  "\u2581sort": 5060,
  "\u2581willing": 5061,
  "\u2581Only": 5062,
  "bus": 5063,
  "\u2581\u0c24": 5064,
  "LA": 5065,
  "\u2581asi": 5066,
  "pli": 5067,
  "sak": 5068,
  "\u2581\u1000\u103c": 5069,
  "\u2581\u0e9a\u0ecd\u0ec8": 5070,
  "\u2581p\u00ebpe": 5071,
  "vita": 5072,
  "\u2581password": 5073,
  "\u2581active": 5074,
  "\u2581\u10db\u10dd": 5075,
  "\u2581direct": 5076,
  "\u0431\u0435": 5077,
  "\u2581kolo": 5078,
  "\u2581l\u00ea": 5079,
  "\u2581effort": 5080,
  "\u2581region": 5081,
  "\u0f60\u0f72\u0f0b": 5082,
  "\u2581\u0a26": 5083,
  "\u2581\u13c2": 5084,
  "\u2581specified": 5085,
  "\u25812008": 5086,
  "\u2581cor": 5087,
  "\u2581carry": 5088,
  "\u2581toko": 5089,
  "\u2581kadagiti": 5090,
  "ista": 5091,
  "\u2581powerful": 5092,
  "\u7b2c": 5093,
  "\u2581persons": 5094,
  "\u0bc8": 5095,
  "\u2581International": 5096,
  "\u2581dau": 5097,
  "\u2581\u0644\u06ce": 5098,
  "\u2581wonderful": 5099,
  "\u0493\u0430\u043d": 5100,
  "\u2581\u0d9a": 5101,
  "z\u00eb": 5102,
  "\u1231": 5103,
  "\u2581justice": 5104,
  "\u0c39": 5105,
  "\u2581protect": 5106,
  "ndan": 5107,
  "\u2581\u0648\u0647": 5108,
  "\u2581Zi": 5109,
  "\u2581icon": 5110,
  "\u05e0\u05d9": 5111,
  "\u2581\u04d5\u043c\u04d5": 5112,
  "\u2581confidence": 5113,
  "gel": 5114,
  "\u2581physical": 5115,
  "\u304c": 5116,
  "\u1273\u1275": 5117,
  "\u09a8\u09be": 5118,
  "\u2581\u0ec0\u0e88\u0ebb\u0ec9\u0eb2": 5119,
  "eti": 5120,
  "\u258121:": 5121,
  "tto": 5122,
  "jan": 5123,
  "nh": 5124,
  "mb": 5125,
  "\u2581hoki": 5126,
  "gura": 5127,
  "\u2581ulih": 5128,
  "\u0ba8\u0bcd\u0ba4": 5129,
  "lja": 5130,
  "\u2581\u041c\u043e": 5131,
  "\u25812006": 5132,
  "nner": 5133,
  "\u2581\u0a15\u0a3f": 5134,
  "\u0442\u0456": 5135,
  "\u2581\u0434\u043b\u044f": 5136,
  "\u2581Im": 5137,
  "\u2581base": 5138,
  "\u2581kami": 5139,
  "\u2581abantu": 5140,
  "\u2581Far": 5141,
  "\u2581kri": 5142,
  "\u0ab8": 5143,
  "\u0c3f\u0c02\u0c1a": 5144,
  "\u2581big": 5145,
  "\u2581Um": 5146,
  "\u2581fathers": 5147,
  "gri": 5148,
  "\u2581check": 5149,
  "\u2581List": 5150,
  "\u2581mba": 5151,
  "ario": 5152,
  "\u2581Babylon": 5153,
  "\u2581tene": 5154,
  "\u2581enemies": 5155,
  "tari": 5156,
  "AR": 5157,
  "info": 5158,
  "\u2581tried": 5159,
  "\u2581q\u00eb": 5160,
  "\u2581\u09aa\u09cd\u09f0": 5161,
  "\u2581thereof": 5162,
  "\u04a9": 5163,
  "\u2581alt": 5164,
  "\u2581Synchronising": 5165,
  "\u25812000": 5166,
  "\u2581ran": 5167,
  "\u2581messages": 5168,
  "\u2581sia": 5169,
  "\u2581older": 5170,
  "\u1290\u1275": 5171,
  "\u258119.": 5172,
  "\u2581eta": 5173,
  "\u0648\u0627": 5174,
  "\u0163i": 5175,
  "\u0f46": 5176,
  "\u2581button": 5177,
  "\u2581According": 5178,
  "stel": 5179,
  "\u2581fin": 5180,
  "\u2581\u13be": 5181,
  "\u2581tayo": 5182,
  "\u2581building": 5183,
  "\u2581Group": 5184,
  "\u043e\u043a": 5185,
  "\u2581Del": 5186,
  "\u2581kona": 5187,
  "\u2581fir": 5188,
  "\u0441\u043e": 5189,
  "\u2581Time": 5190,
  "TA": 5191,
  "\u2581outside": 5192,
  "\u2581\u1791": 5193,
  "\u258112,": 5194,
  "\u2581Ji": 5195,
  "\u0938\u094d\u0924": 5196,
  "\u2581\u0924\u094b": 5197,
  "\u2581sega": 5198,
  "gara": 5199,
  "eki": 5200,
  "\u2581Roma": 5201,
  "\u2581deka": 5202,
  "bin": 5203,
  "ih": 5204,
  "\u0641\u0631": 5205,
  "\u2581add": 5206,
  "eren": 5207,
  "\u2581\u043f\u0440\u0435": 5208,
  "\u2581\u0628\u06c7": 5209,
  "sent": 5210,
  "\u2581eli": 5211,
  "\u2581accepted": 5212,
  "\u2581hundred": 5213,
  "60": 5214,
  "\u043d\u043e\u0433\u043e": 5215,
  "\u2581bread": 5216,
  "\u2581wish": 5217,
  "\u2581risk": 5218,
  "\u2581tena": 5219,
  "\u2581cities": 5220,
  "\u0915\u094d\u0937": 5221,
  "xic": 5222,
  "nek": 5223,
  "\u2581pat": 5224,
  "w\u00f2": 5225,
  "MA": 5226,
  "tive": 5227,
  "\u05f0": 5228,
  "\u2581abo": 5229,
  "\u2581\u0430\u043c": 5230,
  "\u0686\u0649": 5231,
  "v\u00e1": 5232,
  "OR": 5233,
  "\u0432\u0456": 5234,
  "\u2581\u06af\u0641\u062a": 5235,
  "tayo": 5236,
  "\u2581Devil": 5237,
  "\u0924\u094d": 5238,
  "\u5206": 5239,
  "\u2581\u062e\u062f\u0627\u0648\u0646\u062f": 5240,
  "\u2581anti": 5241,
  "\u2581values": 5242,
  "UN": 5243,
  "\u2581pagpa": 5244,
  "\u2581Rather": 5245,
  "\u0aa5": 5246,
  "\u0499\u04d9": 5247,
  "\u2581blessing": 5248,
  "\u05d0\u05b7": 5249,
  "\u2581winak": 5250,
  "nika": 5251,
  "\u10d5\u10d8": 5252,
  "por": 5253,
  "\u2581Ek": 5254,
  "\u2581ska": 5255,
  "\u25812007": 5256,
  "\u2581IN": 5257,
  "\u0cad": 5258,
  "\u8005": 5259,
  "vas": 5260,
  "\u10eb": 5261,
  "\u2581management": 5262,
  "\u2581prepared": 5263,
  "\u2581amo": 5264,
  "itu": 5265,
  "\u1789": 5266,
  "\u2581destroyed": 5267,
  "\u2581f\u00fcr": 5268,
  "\u2581content": 5269,
  "\u2581individual": 5270,
  "\u0435\u0441": 5271,
  "\u2581dire": 5272,
  "\u2581\u090f\u0915": 5273,
  "\u2581condition": 5274,
  "\u12e8": 5275,
  "\u2581URL": 5276,
  "\u2581olu": 5277,
  "\u03ce": 5278,
  "\u1ea1": 5279,
  "\u2581\u063a": 5280,
  "\u04f3": 5281,
  "\u03af\u03b1": 5282,
  "heb": 5283,
  "\u2581\u0431\u0430\u0439": 5284,
  "\u10e8\u10d8": 5285,
  "\u0e17\u0e35\u0e48": 5286,
  "\u2581inspired": 5287,
  "\u2581beginning": 5288,
  "\u2581Take": 5289,
  "\u0422": 5290,
  "ht": 5291,
  "EU": 5292,
  "\u1262": 5293,
  "\u2581\u0395": 5294,
  "\u0430\u0438": 5295,
  "\u2581inc\u00dfa\u00df": 5296,
  "\u2581Op": 5297,
  "ingen": 5298,
  "\u0d9c": 5299,
  "\u5b9a": 5300,
  "\u2581angel": 5301,
  "\u00ebn": 5302,
  "anda": 5303,
  "\u2581helps": 5304,
  "\u041a": 5305,
  "\u0641\u062a": 5306,
  "\u0442\u04d5": 5307,
  "\u258119:": 5308,
  "\u2581clearly": 5309,
  "\u00e6r": 5310,
  "\u2581decided": 5311,
  "ch\u00df": 5312,
  "\u2581Ana": 5313,
  "\u2581contains": 5314,
  "\u2581\u0d38": 5315,
  "\u043b\u0430\u0440\u0438": 5316,
  "\u0924\u093f": 5317,
  "\u2581\u010d": 5318,
  "\u2581treatment": 5319,
  "\u2581prove": 5320,
  "\u0d33": 5321,
  "\u2581kad": 5322,
  "\u12d8": 5323,
  "\u2581event": 5324,
  "\u0b30\u0b47": 5325,
  "\u0644\u06cc": 5326,
  "\u0b1a": 5327,
  "\u10e8": 5328,
  "\u2581reasons": 5329,
  "\u2581contra": 5330,
  "\u13f2": 5331,
  "\u0430\u043b\u0430": 5332,
  "\u6240": 5333,
  "\u2581\u1208": 5334,
  "\u2581grow": 5335,
  "\u2581happiness": 5336,
  "\u2581nje": 5337,
  "\u0924\u094d\u0930": 5338,
  "\u0525\u0448": 5339,
  "\u2581simple": 5340,
  "\u2581member": 5341,
  "nyu": 5342,
  "\u25812004": 5343,
  "\u2581divine": 5344,
  "\u2581bay": 5345,
  "olo": 5346,
  "\u2581throughout": 5347,
  "\u2581uni": 5348,
  "\u258118:": 5349,
  "\u3046": 5350,
  "suu": 5351,
  "\u2581favor": 5352,
  "40": 5353,
  "\u2581load": 5354,
  "\u2581\u0d07": 5355,
  "\u2581Por": 5356,
  "\u2581carried": 5357,
  "\u0648\u0639": 5358,
  "\u0144": 5359,
  "ding": 5360,
  "\u2581Hebrew": 5361,
  "\u0cc6\u0caf": 5362,
  "\u2581\u0633\u0627": 5363,
  "\u2581develop": 5364,
  "\u2581\u03c4\u03b7\u03bd": 5365,
  "\u102e": 5366,
  "\u0942\u0928": 5367,
  "\u2581eiloa": 5368,
  "\u2581\u0410\u043b\u043b\u043e\u04b3": 5369,
  "\u0631\u0627\u0645": 5370,
  "\u2581advice": 5371,
  "\u2581President": 5372,
  "dzo": 5373,
  "\u2581\u101e\u1030": 5374,
  "\u2581\u0438\u0448": 5375,
  "\u2581\u104a": 5376,
  "kil": 5377,
  "\u0448\u044b": 5378,
  "ann": 5379,
  "\u2581names": 5380,
  "\u2581Des": 5381,
  "ell": 5382,
  "\u0eb1\u0e99": 5383,
  "\u2581saith": 5384,
  "\u2581auf": 5385,
  "kisa": 5386,
  "\u2581afraid": 5387,
  "\u03ad": 5388,
  "\u1255": 5389,
  "sig": 5390,
  "\u2581quix": 5391,
  "\u0908": 5392,
  "f\u00f8r": 5393,
  "\u2581sorry": 5394,
  "ct": 5395,
  "sca": 5396,
  "\u0dad": 5397,
  "\u0bbe\u0bb0\u0bcd": 5398,
  "\u00e4r": 5399,
  "\u2581caused": 5400,
  "\u2581obu": 5401,
  "\u2581activity": 5402,
  "\u2581transport": 5403,
  "\u2581lahi": 5404,
  "\u0c2d": 5405,
  "ham": 5406,
  "jas": 5407,
  "\u2581\u17a2": 5408,
  "ole": 5409,
  "\u2581\u0c2a": 5410,
  "\u2581Watchtower": 5411,
  "\u2581ground": 5412,
  "\u2581Keep": 5413,
  "\u0a48": 5414,
  "\u04b5\u0430": 5415,
  "\u2581\u06a9\u06cc\u0627": 5416,
  "\u0a1c": 5417,
  "av": 5418,
  "\u0e38": 5419,
  "\u2581America": 5420,
  "\u751f": 5421,
  "oso": 5422,
  "\u0627\u062d": 5423,
  "\u0e17": 5424,
  "\u0645\u06c7": 5425,
  "say": 5426,
  "\u2581tupu": 5427,
  "\u2581\u043b\u0438": 5428,
  "\u2581memory": 5429,
  "\u103d": 5430,
  "nut": 5431,
  "\u0aa6": 5432,
  "\u0ba4\u0bbf": 5433,
  "\u10d4\u10e0": 5434,
  "\u2581\u0926": 5435,
  "\u2581\u057d": 5436,
  "\u2581parts": 5437,
  "\u2581mat": 5438,
  "\u0b9f\u0bc1": 5439,
  "\u2581Organisation": 5440,
  "\u2581spoken": 5441,
  "nza": 5442,
  "\u2581\u0646\u06c1": 5443,
  "\u258170": 5444,
  "\u2581oti": 5445,
  "\u2581naka": 5446,
  "mmer": 5447,
  "\u2581reheb": 5448,
  "\u2581\u0d2e": 5449,
  "\u2581spe": 5450,
  "ige": 5451,
  "\u2581Tra": 5452,
  "\u2581\u0ca4": 5453,
  "\u0a9a": 5454,
  "pho": 5455,
  "but": 5456,
  "\u2581\u0448\u0438": 5457,
  "bang": 5458,
  "\u2581\u0438\u0442": 5459,
  "\u2581km": 5460,
  "\u258120:": 5461,
  "ulu": 5462,
  "name": 5463,
  "LE": 5464,
  "\u2581component": 5465,
  "\u00e8l": 5466,
  "\u2581nr": 5467,
  "\u5b50": 5468,
  "\u0a26": 5469,
  "\u2581groups": 5470,
  "\u0449\u0438": 5471,
  "\u2581Genesis": 5472,
  "\u03c0\u03bf": 5473,
  "\u09c2": 5474,
  "\u0d24\u0d4d": 5475,
  "\u2581aton": 5476,
  "\u2581t\u00f4i": 5477,
  "\u2581aid": 5478,
  "\u2581\u067e\u06ce": 5479,
  "\u2581girl": 5480,
  "\u092e\u094d": 5481,
  "iko": 5482,
  "\u0571": 5483,
  "law": 5484,
  "\u0627\u0642": 5485,
  "If": 5486,
  "\u2581mang": 5487,
  "oma": 5488,
  "\u2581bed": 5489,
  "\u043d\u0433": 5490,
  "\u0db4": 5491,
  "\u0649\u062f\u06c7": 5492,
  "s\u00e4": 5493,
  "\u2581m\u00f3": 5494,
  "\u0b24": 5495,
  "\u2581prophecy": 5496,
  "\u2581served": 5497,
  "\u0440\u0430\u0442": 5498,
  "\u2581\u043f\u0440\u0435\u0434": 5499,
  "\u10d4\u10d1\u10d8": 5500,
  "\u2581ili": 5501,
  "\u2581\u0646\u0649\u06ad": 5502,
  "vol": 5503,
  "\u2581seem": 5504,
  "\u103a": 5505,
  "kun": 5506,
  "\u2581ene": 5507,
  "\u0648\u06cc": 5508,
  "\u03bf\u03cd": 5509,
  "\u2581judge": 5510,
  "\u2581\u0626\u06ce\u0645\u0647": 5511,
  "tzen": 5512,
  "\u0e08": 5513,
  "zza": 5514,
  "\u0414": 5515,
  "\u2581Eebe": 5516,
  "tata": 5517,
  "\u043e\u0432\u0430": 5518,
  "\u2581jen": 5519,
  "\u2581\u067e\u0633": 5520,
  "\u2581More": 5521,
  "\u2581\u1275": 5522,
  "It": 5523,
  "\u0634\u06cc": 5524,
  "\u043c\u043e\u043d": 5525,
  "\u2581Dia": 5526,
  "\u2581laws": 5527,
  "\u0dd2\u0dba": 5528,
  "\u258120.": 5529,
  "\u0565\u0581": 5530,
  "\u0ab0\u0acd": 5531,
  "\u2581\u014bu": 5532,
  "\u10dc\u10d0": 5533,
  "\u09a7": 5534,
  "tai": 5535,
  "\u06be\u0627": 5536,
  "\u091a\u0940": 5537,
  "\u2581connection": 5538,
  "\u2581\u121b": 5539,
  "\u2581\u0bb5": 5540,
  "\u091a\u094d\u092f\u093e": 5541,
  "\u2581Aku": 5542,
  "\u2581lei": 5543,
  "enda": 5544,
  "\u2581Instead": 5545,
  "\u0575": 5546,
  "\u2581\u0259": 5547,
  "\u2581forgive": 5548,
  "\u2581Biz": 5549,
  "\u0645\u0629": 5550,
  "\u2581tas": 5551,
  "\u884c": 5552,
  "\u1015": 5553,
  "\u25812009": 5554,
  "\u2581kara": 5555,
  "\u2581associated": 5556,
  "\u2581sz": 5557,
  "ais": 5558,
  "\u2581:": 5559,
  "fika": 5560,
  "idade": 5561,
  "\u0431\u0443": 5562,
  "\u2581idea": 5563,
  "\u09a8\u09c7": 5564,
  "\u2581\u1290": 5565,
  "\u2581About": 5566,
  "lal": 5567,
  "\u2581\u00c7": 5568,
  "\u2581bango": 5569,
  "\u2581term": 5570,
  "plo": 5571,
  "\u2581alimwi": 5572,
  "\u12db": 5573,
  "\u2581masa": 5574,
  "\u0eaa": 5575,
  "gia": 5576,
  "\u2581maa": 5577,
  "aci\u00f3n": 5578,
  "rup": 5579,
  "\u2581daily": 5580,
  "\u0aae\u0abe\u0a82": 5581,
  "\u2581opp": 5582,
  "kati": 5583,
  "vy": 5584,
  "\u2581issues": 5585,
  "\u121a": 5586,
  "enti": 5587,
  "\u2581k\u00ed": 5588,
  "\u258136": 5589,
  "\u0939\u0940": 5590,
  "bile": 5591,
  "\u2581rich": 5592,
  "mpu": 5593,
  "uru": 5594,
  "\u101e\u100a\u103a": 5595,
  "\u2581\u043f\u0443\u043b": 5596,
  "kwi": 5597,
  "\u06cc\u0645": 5598,
  "\u2581effective": 5599,
  "\u2581\u0627\u0644\u0644\u06c1": 5600,
  "\u2581\u0431\u0435": 5601,
  "ep": 5602,
  "\u2581\u1235": 5603,
  "\u00b7": 5604,
  "cri": 5605,
  "laki": 5606,
  "\u258122:": 5607,
  "kle": 5608,
  "\u0b38": 5609,
  "\u2581\u0c15": 5610,
  "\u2581ransom": 5611,
  "\u0c4d\u0c2f": 5612,
  "\u04e7": 5613,
  "\u2581ee": 5614,
  "\u0cb6": 5615,
  "\u2581ukuba": 5616,
  "\u092d": 5617,
  "cal": 5618,
  "\u2581k\u00f3": 5619,
  "hal": 5620,
  "\u2581ability": 5621,
  "\u2581une": 5622,
  "vez": 5623,
  "\u00edn": 5624,
  "80": 5625,
  "\u2581maua": 5626,
  "ami": 5627,
  "was": 5628,
  "\u2581immediately": 5629,
  "\u1271": 5630,
  "\u2581offered": 5631,
  "chu": 5632,
  "This": 5633,
  "\u2581\u1213": 5634,
  "h\u00f3": 5635,
  "Pa": 5636,
  "ien": 5637,
  "\u2581passed": 5638,
  "\u2581wuxuu": 5639,
  ");": 5640,
  "\u0aab": 5641,
  "sini": 5642,
  "j\u00eb": 5643,
  "\u2581\u0938\u0902": 5644,
  "\u0ac2": 5645,
  "\u2581ngoku": 5646,
  "aan": 5647,
  "\u2581blessed": 5648,
  "\u2581tonu": 5649,
  "\u2581r\u00e8": 5650,
  "\u2581beautiful": 5651,
  "\u0441\u043e\u043d": 5652,
  "riki": 5653,
  "\u1032": 5654,
  "\u2581published": 5655,
  "\u258145": 5656,
  "\u2581sas": 5657,
  "gas": 5658,
  "sat": 5659,
  "\u2581\u043f\u0443": 5660,
  "rit": 5661,
  "\u2581\u00f6": 5662,
  "\u2581dengan": 5663,
  "\u0d26": 5664,
  "\u2581promises": 5665,
  "cija": 5666,
  "\u2581couple": 5667,
  "\u2581Kuma": 5668,
  "\u2581pages": 5669,
  "n\u0101": 5670,
  "\u2581version": 5671,
  "\u2581entered": 5672,
  "\u2581drive": 5673,
  "\u2581waxay": 5674,
  "p\u00e9": 5675,
  "\u2581\u0438\u0440": 5676,
  "\u0c30\u0c3e": 5677,
  "\u2581\u0434\u0435\u043f": 5678,
  "\u0aa8\u0ac0": 5679,
  "\u2581\u05e7": 5680,
  "\u2581\u03ba": 5681,
  "sum": 5682,
  "\u00e3o": 5683,
  "\u2581ila": 5684,
  "iva": 5685,
  "\u00e4\u00e4": 5686,
  "\u2581s\u0103": 5687,
  "\u2581\u0b86": 5688,
  "\u0420": 5689,
  "\u2581mem": 5690,
  "\u2581nye": 5691,
  "\u2581wine": 5692,
  "\u0995\u09cd\u09b7": 5693,
  "g\u00e9": 5694,
  "\u2581lang": 5695,
  "\u2581\u13a1": 5696,
  "naki": 5697,
  "\u2581pala": 5698,
  "\u308c": 5699,
  "\u2581\u0418\u0438\u0441\u0443\u0441": 5700,
  "\u2581mini": 5701,
  "\u2581t\u00e1": 5702,
  "\u2581entire": 5703,
  "\u2581saray": 5704,
  "\u2581filled": 5705,
  "\u591a": 5706,
  "gad": 5707,
  "rar": 5708,
  "\u043f\u0435\u0440": 5709,
  "\u0a70": 5710,
  "\u06a9\u0627\u0631": 5711,
  "\u0aa7": 5712,
  "\u2581Folder": 5713,
  "\u0456\u043d": 5714,
  "\u2581\u12e8\u121a": 5715,
  "\u2581June": 5716,
  "\u2581Ol": 5717,
  "GA": 5718,
  "\u2581\u0a15": 5719,
  "gala": 5720,
  "\u2581\u0448\u04d9": 5721,
  "\u2581\u0628\u064a\u0634": 5722,
  "\u2581gina": 5723,
  "\u2581omu": 5724,
  "\u2581m\u00ed": 5725,
  "\u0920": 5726,
  "\u2581mid": 5727,
  "\u258121.": 5728,
  "\u2581Em": 5729,
  "dii": 5730,
  "\u2581\u0628\u06be\u06cc": 5731,
  "\u0dca": 5732,
  "rra": 5733,
  "\u2581\u0a2c": 5734,
  "\u2581\u00fda": 5735,
  "\u2581inform": 5736,
  "\u0a2c": 5737,
  "rio": 5738,
  "\u0561\u0574": 5739,
  "\u2581\u101c": 5740,
  "\u2581High": 5741,
  "\u2581implementation": 5742,
  "\u0121i": 5743,
  "\u258134": 5744,
  "ume": 5745,
  "\u2581Delete": 5746,
  "n\u011b": 5747,
  "\u2581~": 5748,
  "\u2581Ber": 5749,
  "\u2581inside": 5750,
  "zvi": 5751,
  "god": 5752,
  "\u2581tsa": 5753,
  "\u06cb\u0627": 5754,
  "nyo": 5755,
  "tica": 5756,
  "\u2581violence": 5757,
  "\u2581\u041d": 5758,
  "\u0578\u0582\u0576": 5759,
  "sut": 5760,
  "ps": 5761,
  "\u2581comp": 5762,
  "rama": 5763,
  "\u2581seed": 5764,
  "\u0577": 5765,
  "\u2581presence": 5766,
  "\u2581approach": 5767,
  "\u2581chosen": 5768,
  "ering": 5769,
  "\u2581box": 5770,
  "\u2581Ia": 5771,
  "\u2581York": 5772,
  "\u0c1c": 5773,
  "\u2581families": 5774,
  "\u12ee": 5775,
  "\u2581computer": 5776,
  "\u04b7": 5777,
  "\u0dc0\u0dcf": 5778,
  "\u0e84": 5779,
  "\u04b5": 5780,
  "\u25812005": 5781,
  "\u2581Nor": 5782,
  "\u0434\u0435\u043d": 5783,
  "\u2581\u06aa": 5784,
  "\u2581(1": 5785,
  "\u2581Kom": 5786,
  "\u13eb": 5787,
  "\u2581Thank": 5788,
  "c\u00e9": 5789,
  "\u2581\u0428": 5790,
  "EL": 5791,
  "kaka": 5792,
  "hom": 5793,
  "ega": 5794,
  "tiv": 5795,
  "\u2581uye": 5796,
  "\u10d4\u10d1\u10d0": 5797,
  "\u2581ibi": 5798,
  "\u2581affect": 5799,
  "\u2581iba": 5800,
  "\u0441\u0435\u043d\u0435": 5801,
  "\u2581\u304c": 5802,
  "\u2581Io": 5803,
  "\u0a3f\u0a06": 5804,
  "\u0442\u044b\u0440": 5805,
  "\u13f1": 5806,
  "gos": 5807,
  "\u0576\u0565\u0580": 5808,
  "\u2581\u09ae": 5809,
  "\u0639\u0627": 5810,
  "ete": 5811,
  "\u09b0\u09be": 5812,
  "\u091c\u093c": 5813,
  "\u0bc0": 5814,
  "issa": 5815,
  "\u2581Yehuwa": 5816,
  "wal": 5817,
  "\u2581Act": 5818,
  "ING": 5819,
  "king": 5820,
  "\u2581bee": 5821,
  "\u0628\u0627\u0646": 5822,
  "ante": 5823,
  "\u2581\u0625\u0644\u0649": 5824,
  "\u2581\u057f": 5825,
  "tira": 5826,
  "\u2581beyond": 5827,
  "\u2581delivered": 5828,
  "himo": 5829,
  "\u2581alive": 5830,
  "serv": 5831,
  "\u062f\u0627\u0646": 5832,
  "\u2581Gin": 5833,
  "\u2581opening": 5834,
  "\u2581bag": 5835,
  "\u1015\u103c": 5836,
  "\u2581shal": 5837,
  "\u2581white": 5838,
  "\u068c": 5839,
  "\u2581initialise": 5840,
  "\u091d": 5841,
  "tio": 5842,
  "RI": 5843,
  "\u2581Display": 5844,
  "\u0f51\u0f74": 5845,
  "\u2581\u0430\u043b\u0430": 5846,
  "\u2581pain": 5847,
  "\u2581aso": 5848,
  "\u2581pang": 5849,
  "\u0117s": 5850,
  "\u0d23": 5851,
  "hand": 5852,
  "\u305f": 5853,
  "SI": 5854,
  "\u2581stated": 5855,
  "\u2581instance": 5856,
  "\u2581ahau": 5857,
  "\u2581kue": 5858,
  "\u2581gold": 5859,
  "\u2581\u13a6": 5860,
  "\u2581olo": 5861,
  "else": 5862,
  "\u2581title": 5863,
  "\u1296": 5864,
  "\u2581salvation": 5865,
  "\u2581\u1230": 5866,
  "\u2581copy": 5867,
  "t\u00e8": 5868,
  "\u0ca6\u0cc1": 5869,
  "\u2581pagka": 5870,
  "\u2581\u0dc0": 5871,
  "\u2581pare": 5872,
  "\u2581DVD": 5873,
  "\u2581dzi": 5874,
  "\u2581suffer": 5875,
  "eu": 5876,
  "\u2581languages": 5877,
  "\u2581\u04a1\u0430": 5878,
  "\u04d5\u0433": 5879,
  "g\u00e1": 5880,
  "\u2581\u179a\u1794\u179f\u17cb": 5881,
  "\u2581stra": 5882,
  "\u2581conscience": 5883,
  "\u056e": 5884,
  "s\u00e1": 5885,
  "\u2581kali": 5886,
  "urs": 5887,
  "kur": 5888,
  "\u0aa3": 5889,
  "\u2581\u091a": 5890,
  "\u0936\u094d": 5891,
  "\u17bd": 5892,
  "\u2581Still": 5893,
  "\u2581thoughts": 5894,
  "\u09a4\u09bf": 5895,
  "\u00e1r": 5896,
  "\u2581prison": 5897,
  "pit": 5898,
  "\u2581vie": 5899,
  "\u2581Canada": 5900,
  "\u2581product": 5901,
  "\u2581\u0a35\u0a3f\u0a1a": 5902,
  "\u2581Iya": 5903,
  "\u2581iray": 5904,
  "\u2581\u3068": 5905,
  "\u2581desires": 5906,
  "\u2581party": 5907,
  "\u2581options": 5908,
  "\u2581qo": 5909,
  "\u2581mel": 5910,
  "\u2581ralal": 5911,
  "\u00fdar": 5912,
  "\u0ea5": 5913,
  "\u2581\u00fc": 5914,
  "\u2581\u0d28": 5915,
  "\u2581undo": 5916,
  "sil": 5917,
  "\u2581entre": 5918,
  "\u2581fulfilled": 5919,
  "CE": 5920,
  "\u2581rawa": 5921,
  "\u0627\u0626\u064a": 5922,
  "d\u0131": 5923,
  "\u2581\u0d35": 5924,
  "lua": 5925,
  "ddi": 5926,
  "laka": 5927,
  "uh": 5928,
  "\u2581ry": 5929,
  "\u258138": 5930,
  "\u2581inn": 5931,
  "nau": 5932,
  "RA": 5933,
  "\u00fck": 5934,
  "18": 5935,
  "nger": 5936,
  "God": 5937,
  "\u2581jan": 5938,
  "\u2581benefits": 5939,
  "llan": 5940,
  "\u2581plus": 5941,
  "RE": 5942,
  "activ": 5943,
  "\u0651": 5944,
  "\u2581Cu": 5945,
  "misa": 5946,
  "him": 5947,
  "\u2581okay": 5948,
  "mel": 5949,
  "\u2581kuenda": 5950,
  "\u0438\u0445": 5951,
  "p\u00e4": 5952,
  "\u0901": 5953,
  "\u00e9s": 5954,
  "\u2581n\u00e1\u00e0": 5955,
  "\u043c\u0456": 5956,
  "dom": 5957,
  "\u0442\u04d9\u0440": 5958,
  "\u2581guide": 5959,
  "lement": 5960,
  "\u2581\u062e\u0627": 5961,
  "\u0442\u0435\u043b": 5962,
  "\u2581Us": 5963,
  "\u0c4b": 5964,
  "\u2581naba": 5965,
  "\u010da": 5966,
  "\u043b\u04d1\u0445": 5967,
  "\u2581animals": 5968,
  "\u258116,": 5969,
  "\u0433\u04af\u0439": 5970,
  "\u2581Yu": 5971,
  "\u3089": 5972,
  "\u2581Comment": 5973,
  "\u2581July": 5974,
  "\u043b\u04d7": 5975,
  "\u2581acts": 5976,
  "ques": 5977,
  "\u103b": 5978,
  "\u0497": 5979,
  "\u2581concern": 5980,
  "\u2581\u2015": 5981,
  "elo": 5982,
  "\u2581\u041a\u043e": 5983,
  "\u2581moral": 5984,
  "\u2581resources": 5985,
  "amma": 5986,
  "kku": 5987,
  "pek": 5988,
  "\u2581anger": 5989,
  "\u2581suka": 5990,
  "\u121e": 5991,
  "lap": 5992,
  "\u0cb2\u0ccd\u0cb2": 5993,
  "\u2581Web": 5994,
  "weni": 5995,
  "\u2581\u00e2": 5996,
  "hle": 5997,
  "\u0c24\u0c3f": 5998,
  "\u2581Sha": 5999,
  "\u2581rela": 6000,
  "ary": 6001,
  "\u099b\u09c7": 6002,
  "sang": 6003,
  "\u2581yoku": 6004,
  "via": 6005,
  "\u2581uit": 6006,
  "\u2581calls": 6007,
  "\u0cbf\u0c97\u0cc6": 6008,
  "\u062c\u064a\u06aa\u064a": 6009,
  "\u0441\u0442\u0432": 6010,
  "\u13ea": 6011,
  "\u0430\u0433": 6012,
  "mpe": 6013,
  "16": 6014,
  "\u00fd\u00e4r": 6015,
  "\u17a0": 6016,
  "\u0649\u0646\u0649": 6017,
  "\u099b": 6018,
  "\u25812010": 6019,
  "oga": 6020,
  "\u0256e": 6021,
  "\u0433\u044c\u044b": 6022,
  "fia": 6023,
  "\u2581g\u00f6r": 6024,
  "\u1005\u103a": 6025,
  "\u0649\u0633\u0649": 6026,
  "\u2581described": 6027,
  "\u2581Sie": 6028,
  "qqa": 6029,
  "\u2581\u0440\u0430\u0441": 6030,
  "\u2581f\u00fan": 6031,
  "\u540c": 6032,
  "\u2581talking": 6033,
  "\u012bbas": 6034,
  "\u0a88": 6035,
  "\u1219": 6036,
  "ore": 6037,
  "\u2581model": 6038,
  "\u2581explained": 6039,
  "\u0646\u064a": 6040,
  "\u0dc3": 6041,
  "\u2581Surely": 6042,
  "\u2581picture": 6043,
  "rei": 6044,
  "\u2581\u0db8": 6045,
  "\u0db6": 6046,
  "\u2581practice": 6047,
  "\u2581measure": 6048,
  "\u2581\u04d9": 6049,
  "\u4e2a": 6050,
  "mbre": 6051,
  "\u03c4\u03b9": 6052,
  "\u062f\u0627\u0631": 6053,
  "\u2581built": 6054,
  "sis": 6055,
  "\u2581awa": 6056,
  "sit": 6057,
  "\u2581global": 6058,
  "\u0442\u043e\u0439": 6059,
  "\u2581\u05e2": 6060,
  "\u2581Close": 6061,
  "fat": 6062,
  "\u2581included": 6063,
  "\u0561\u057e": 6064,
  "v\u0113": 6065,
  "tava": 6066,
  "lige": 6067,
  "pin": 6068,
  "n\u00fa": 6069,
  "\u2581\u0b05": 6070,
  "pfu": 6071,
  "leka": 6072,
  "ism": 6073,
  "\u2581panel": 6074,
  "cce": 6075,
  "\u043e\u0437": 6076,
  "iku": 6077,
  "\u2581\u0924": 6078,
  "\u2581\u092a\u093e": 6079,
  "tung": 6080,
  "\u0cac": 6081,
  "\u0c9c": 6082,
  "\u2581Page": 6083,
  "\u2581environment": 6084,
  "\u2581\u0628\u06ce": 6085,
  "inta": 6086,
  "\u2581tata": 6087,
  "\u0435\u043f": 6088,
  "\u056d": 6089,
  "\u0e48\u0e32": 6090,
  "\u0e4c": 6091,
  "\u10d0\u10e0": 6092,
  "\u2581(2)": 6093,
  "\u2581\u13f1": 6094,
  "\u0430\u043f": 6095,
  "bij": 6096,
  "\u0695": 6097,
  "\u2581Hebrews": 6098,
  "\u2581Great": 6099,
  "\u2581\u0565\u0576": 6100,
  "\u2581bya": 6101,
  "\u2581Mis": 6102,
  "\u2581deg": 6103,
  "\u015fi": 6104,
  "amh": 6105,
  "\u2581\u0935\u093f": 6106,
  "\u53bb": 6107,
  "\u2581Watch": 6108,
  "\u2581\u0425\u0430": 6109,
  "ologi": 6110,
  "sser": 6111,
  "kke": 6112,
  "\u2581k\u00f6": 6113,
  "\u101a": 6114,
  "\u2581taata": 6115,
  "\u2581\u05dc\u05d0": 6116,
  "\u0dab": 6117,
  "\u2581\u0d91": 6118,
  "oko": 6119,
  "\u0628\u0627\u0648\u0647": 6120,
  "neqar": 6121,
  "end": 6122,
  "\u25812002": 6123,
  "kela": 6124,
  "\u2581mine": 6125,
  "\u0695\u0647": 6126,
  "\u2581baptism": 6127,
  "\u3068": 6128,
  "\u1792": 6129,
  "\u2581Nzapa": 6130,
  "\u2581Fu": 6131,
  "IS": 6132,
  "\u2581kings": 6133,
  "\u2581mua": 6134,
  "\u2581\u062a\u0631": 6135,
  "nci": 6136,
  "\u1278\u12cd": 6137,
  "\u2581\u0628\u0648\u062f": 6138,
  "\u0561\u057d": 6139,
  "\u2581wie": 6140,
  "\u2581Default": 6141,
  "fra": 6142,
  "\u2581\u0442\u0443\u0440": 6143,
  "\u0cbe\u0c97": 6144,
  "\u0dd2": 6145,
  "\u09b2\u09be": 6146,
  "\u0693": 6147,
  "\u2581\u0a1a": 6148,
  "\u2581\u0449\u043e": 6149,
  "\u2581sar": 6150,
  "\u0921\u093c": 6151,
  "\u0633\u0644": 6152,
  "\u2581Envelope": 6153,
  "\u2581\u0906\u0923\u093f": 6154,
  "\u2581\u00fd": 6155,
  "\u2581almost": 6156,
  "\u0441\u0442\u0432\u043e": 6157,
  "\u2581\u0c2e": 6158,
  "j\u00ed": 6159,
  "\u2581basa": 6160,
  "\u2581\u016b": 6161,
  "j\u00e1": 6162,
  "\u2581\u098f": 6163,
  "\u2581\u0e81\u0eb1\u0e9a": 6164,
  "\u0bbf": 6165,
  "\u05d5\u05e8": 6166,
  "13": 6167,
  "\u2581\u1796": 6168,
  "eke": 6169,
  "\u0131n": 6170,
  "\u2581appear": 6171,
  "\u2581positive": 6172,
  "\u2581\u0db6": 6173,
  "\u2581sick": 6174,
  "Do": 6175,
  "\u2581behalf": 6176,
  "\u2581Pharaoh": 6177,
  "leni": 6178,
  "\u2581warning": 6179,
  "\u2581reports": 6180,
  "\u09ac\u09c7": 6181,
  "\u2581therein": 6182,
  "\u2581web": 6183,
  "\u2581resolution": 6184,
  "ssu": 6185,
  "leb": 6186,
  "\u2581Window": 6187,
  "\u2581\u017ee": 6188,
  "\u2581cooperation": 6189,
  "imh": 6190,
  "\u2581precious": 6191,
  "\u2581\u306a": 6192,
  "\u2581Remember": 6193,
  "\u2581\u0641\u0631": 6194,
  "\u041f": 6195,
  "\u00e1s": 6196,
  "\u0a96": 6197,
  "\u0441\u043a\u0430": 6198,
  "\u2581\u05d0\u05ea": 6199,
  "\u0434\u04d5\u0440": 6200,
  "t\u0103": 6201,
  "\u2581informa": 6202,
  "\u2581\u03b3\u03b9\u03b1": 6203,
  "\u2581\u0634\u0627": 6204,
  "ther": 6205,
  "\u0f53": 6206,
  "\u2581disk": 6207,
  "\u2581nature": 6208,
  "\u2581Moreover": 6209,
  "\u258113,": 6210,
  "\u2581vin": 6211,
  "\u2581aon": 6212,
  "\u2581chun": 6213,
  "\u0c24\u0c4b": 6214,
  "\u2581\u092e\u093e": 6215,
  "\u0644\u06d5": 6216,
  "\u2581wy": 6217,
  "\u2581Bethel": 6218,
  "\u2581Scriptural": 6219,
  "\u2581\u0938\u093e": 6220,
  "\u2581d\u0259": 6221,
  "\u0645\u06d5": 6222,
  "\u0570": 6223,
  "wie": 6224,
  "nit": 6225,
  "tuu": 6226,
  "What": 6227,
  "\u043d\u0438\u044f": 6228,
  "\u0dad\u0dd2": 6229,
  "\u2581top": 6230,
  "\u2581research": 6231,
  "\u2581t\u0101": 6232,
  "\u2581\u0431\u0443\u043b": 6233,
  "\u2581\u0924\u094d\u092f\u093e": 6234,
  "\u2581\u09ac\u09bf": 6235,
  "nima": 6236,
  "\u2581break": 6237,
  "\u65af": 6238,
  "\u2581Size": 6239,
  "\u2581ajcui\u00df": 6240,
  "\u2581points": 6241,
  "rna": 6242,
  "\u2581ale": 6243,
  "\u0c82\u0ca6": 6244,
  "\u2581destroy": 6245,
  "\u04f7": 6246,
  "\u2581boy": 6247,
  "\u2581\u12a8\u121d": 6248,
  "\u2581ok": 6249,
  "\u2581\u092c\u093e": 6250,
  "\u2581items": 6251,
  "bia": 6252,
  "\u2581pioneer": 6253,
  "\u2581adopted": 6254,
  "tres": 6255,
  "\u2581price": 6256,
  "\u2581\u0642\u0649\u0644": 6257,
  "gut": 6258,
  "\u2581watch": 6259,
  "ayo": 6260,
  "\u0c21\u0c41": 6261,
  "\u0628\u06ce\u062a": 6262,
  "\u044b\u0441": 6263,
  "\u2581showing": 6264,
  "\u2581\u043a\u043e\u043d": 6265,
  "\u2581\u0e84": 6266,
  "\u09f1": 6267,
  ".1": 6268,
  "\u2581t\u00ea": 6269,
  "\u2581ese": 6270,
  "\u2581speech": 6271,
  "\u2581b\u00ea": 6272,
  "\u2581\u0441\u044b": 6273,
  "\u0627\u06be": 6274,
  "\u2581prophets": 6275,
  "iem": 6276,
  "\u12ce": 6277,
  "\u2581expression": 6278,
  "\u2581hati": 6279,
  "ort": 6280,
  "\u2581\u09ac\u09be": 6281,
  "\u2581church": 6282,
  "\u2581Republic": 6283,
  "\u2581ebi": 6284,
  "\u0434\u0430\u0433": 6285,
  "\u2581qi": 6286,
  "\u2581\u10e0\u10dd\u10db": 6287,
  "\u0a1c\u0a3c": 6288,
  "\u2581atoa": 6289,
  "tina": 6290,
  "\u2581\u043a\u0435\u043b": 6291,
  "\u2581tiko": 6292,
  "\u2581\u0907": 6293,
  "\u2581kapav": 6294,
  "\u043b\u0430\u0440\u0433\u0430": 6295,
  "\u2581\u0431\u0435\u0437": 6296,
  "\u0423": 6297,
  "\u05e0\u05d5": 6298,
  "\u2581tot": 6299,
  "\u2581choice": 6300,
  "DE": 6301,
  "\u043d\u04d9": 6302,
  "\u0631\u0627\u062a": 6303,
  "\u25812003": 6304,
  "\u0435\u043d\u04d9": 6305,
  "\u062a\u0645": 6306,
  "\u2581fit": 6307,
  "\u2581chief": 6308,
  "\u0c4a": 6309,
  "\u0565\u0576": 6310,
  "vers": 6311,
  "\u0642\u06c7": 6312,
  "\u2581\u0645\u0639": 6313,
  "\u2581Germany": 6314,
  "\u306a": 6315,
  "\u2581tao": 6316,
  "lje": 6317,
  "aren": 6318,
  "\u0499\u0435": 6319,
  "\u0631\u062f": 6320,
  "awa": 6321,
  "\u2581Number": 6322,
  "\u2581star": 6323,
  "\u2581Pablo": 6324,
  "\u2581\u13a0\u13c2": 6325,
  "\u2581Message": 6326,
  "\u2581spend": 6327,
  "rag": 6328,
  "kuru": 6329,
  "dje": 6330,
  "\u2581mara": 6331,
  "\u0137": 6332,
  "\u2581manner": 6333,
  "\u0443\u044b": 6334,
  "\u0430\u0437": 6335,
  "\u2581wives": 6336,
  "ede": 6337,
  "\u2581\u0436\u0438": 6338,
  "\u05d9\u05e8": 6339,
  "\u2581f\u00e9": 6340,
  "j\u00f3": 6341,
  "\u0632\u06cc": 6342,
  "bas": 6343,
  ",\"": 6344,
  "nera": 6345,
  "\u2581\u03bf": 6346,
  "\u2581students": 6347,
  "\u2581sexual": 6348,
  "\u2581recorded": 6349,
  "ihi": 6350,
  "\u2581roa": 6351,
  "\u0646\u062f\u0647": 6352,
  "\u0679": 6353,
  "\u04bf\u044b": 6354,
  "\u13cd\u13a6": 6355,
  "\u2581nai": 6356,
  "\u104a": 6357,
  "\u1ea3": 6358,
  "\u2581Unknown": 6359,
  "\u2581\u0438\u0445": 6360,
  "\u2581Pen": 6361,
  "ova": 6362,
  "igen": 6363,
  "\u2581nem": 6364,
  "\u092e\u093e": 6365,
  "\u2581l\u00e1ti": 6366,
  "rek": 6367,
  "\u0eb1\u0e94": 6368,
  "\u2581\u043a\u04e9\u0440": 6369,
  "\u2581ada": 6370,
  "De": 6371,
  "\u1000": 6372,
  "\u0f51\u0f0b": 6373,
  "\u2581forget": 6374,
  "vat": 6375,
  "\u2581\u0eab": 6376,
  "\u2581worked": 6377,
  "tul": 6378,
  "dh": 6379,
  "\u0442\u0440": 6380,
  "\u2581\u12a5\u1295": 6381,
  "\u2581\u0ead": 6382,
  "\u0442\u04d1\u0440": 6383,
  "\u2581record": 6384,
  "\u2581auto": 6385,
  "uga": 6386,
  "\u0430\u04b3": 6387,
  "\u0c1f": 6388,
  "\u2581ani": 6389,
  "\u2581\u10e1": 6390,
  "\u2581tsy": 6391,
  "cita": 6392,
  "\u2581patient": 6393,
  "\u0d7c": 6394,
  "\u042b": 6395,
  "kolo": 6396,
  "stand": 6397,
  "s\u00eb": 6398,
  "\u0448\u043e": 6399,
  "d\u0131r": 6400,
  "\u0434\u0438\u043d": 6401,
  "\u2581finn": 6402,
  "\u2581\u1019\u103b\u102c\u1038": 6403,
  "\u2581below": 6404,
  "sinnaa": 6405,
  "\u0259t": 6406,
  "\u2581\u0434\u04d9": 6407,
  "mala": 6408,
  "s\u00e8": 6409,
  "\u2581Ag": 6410,
  "\u2581\u0ec0\u0eae\u0eb1\u0e94": 6411,
  "\u13d8": 6412,
  "\u2581images": 6413,
  "it\u00e9": 6414,
  "25": 6415,
  "To": 6416,
  "\u062a\u0648": 6417,
  "\u2581US": 6418,
  "\u0437\u0435": 6419,
  "\u0b4b": 6420,
  "tang": 6421,
  "bere": 6422,
  "\u2581twa": 6423,
  "\u2581integrity": 6424,
  "ike": 6425,
  "\u2581October": 6426,
  "dus": 6427,
  "raoi": 6428,
  "\u0d2d": 6429,
  "\u2581device": 6430,
  "\u2581\u0422\u0438": 6431,
  "\u2581mil": 6432,
  "\u0d41\u0d28\u0d4d\u0d28": 6433,
  "\u2581\u0633\u0627\u0646": 6434,
  "lip": 6435,
  "\u2581appreciate": 6436,
  "\u2581Cho": 6437,
  "udi": 6438,
  "\u2581koutou": 6439,
  "\u2581\u00c1": 6440,
  "\u2581birth": 6441,
  "\u0628\u0627\u0631": 6442,
  "\u5de5\u4f5c": 6443,
  "\u2581\u044e": 6444,
  "\u2581\u0531": 6445,
  "\u2581000": 6446,
  "\u2581\u0627\u06cc\u0646": 6447,
  "\u2581\u13a4\u13c2": 6448,
  "\u25812011": 6449,
  "\u2581hell": 6450,
  "\u2581privilege": 6451,
  "\u2581kre": 6452,
  "\u0e1b": 6453,
  "\u0c38\u0c4d": 6454,
  "fana": 6455,
  "\u2581patients": 6456,
  "\u2581trade": 6457,
  "\u2581object": 6458,
  "\u2581\u043e\u0441": 6459,
  "\u0ead": 6460,
  "gera": 6461,
  "PA": 6462,
  "\u2581minutes": 6463,
  "\u2581experienced": 6464,
  "a\u0142": 6465,
  "\u2581ezali": 6466,
  "\u2581\u0995\u09b0\u09be": 6467,
  "\u2581\u09aa\u09cd\u09b0": 6468,
  "kama": 6469,
  "kele": 6470,
  "age": 6471,
  "\u4ed6": 6472,
  "\u2581Ny": 6473,
  "\u044a\u0451\u0441": 6474,
  "\u06cc\u062a": 6475,
  "lash": 6476,
  "\u2581quickly": 6477,
  "\u2581\u0c35": 6478,
  "\u2581swa": 6479,
  "\u2581influence": 6480,
  "\u2581tali": 6481,
  "rah": 6482,
  "\u2581True": 6483,
  "pur": 6484,
  "ttu": 6485,
  "\u00e5r": 6486,
  "\u2581\u0431\u043e\u0440": 6487,
  "\u2581destruction": 6488,
  "\u2581deliver": 6489,
  "\u2581Jeova": 6490,
  "ash": 6491,
  "\u064a\u0648\u0646": 6492,
  "\u043b\u0430\u0448": 6493,
  "kanga": 6494,
  "\u2581parent": 6495,
  "\u2581original": 6496,
  "vor": 6497,
  "Sa": 6498,
  "\u00ef": 6499,
  "\u2581Give": 6500,
  "\u0442\u0435\u043d": 6501,
  "\u0938\u094d": 6502,
  "\u2581seems": 6503,
  "\u0127a": 6504,
  "SA": 6505,
  "\u0f61": 6506,
  "\u2581\u0d24": 6507,
  "\u2581enable": 6508,
  "\u2581hem": 6509,
  "\u2581response": 6510,
  "\u25812)": 6511,
  "kit": 6512,
  "\u0b26": 6513,
  "nica": 6514,
  "\u1005": 6515,
  "\u2581\u043a\u04e9": 6516,
  "\u2581Che": 6517,
  "sco": 6518,
  "\u01b0": 6519,
  "\u2581\u1363": 6520,
  "\u102d\u102f": 6521,
  "\u2581Hall": 6522,
  "phu": 6523,
  "\u2581bra": 6524,
  "\u2581sau": 6525,
  "rk": 6526,
  "\u2581sobre": 6527,
  "c\u00ed": 6528,
  "\u13d4": 6529,
  "\u2581Gal": 6530,
  "jem": 6531,
  "\u2581\u0161": 6532,
  "\u0bb1\u0bcd\u0bb1": 6533,
  "\u2581bakal": 6534,
  "\u2581gro": 6535,
  "\u0ddd": 6536,
  "\u2581Ata": 6537,
  "\u2581\u0a86": 6538,
  "\u2581exercise": 6539,
  "\u2581nel": 6540,
  "n\u0131": 6541,
  "\u0a17": 6542,
  "\u2581Table": 6543,
  "\u0ca7": 6544,
  "b\u0259": 6545,
  "\u2581discipline": 6546,
  "\u2581\u0441\u0442\u0430": 6547,
  "\u2581eme": 6548,
  "\u2581ole": 6549,
  "\u2581Jeremiah": 6550,
  "\u2581Non": 6551,
  "\u0438\u0438": 6552,
  "\u2581Y\u00e9huwa": 6553,
  "\u2581\u1787": 6554,
  "rung": 6555,
  "\u2581low": 6556,
  "\u1000\u102d\u102f": 6557,
  "\u064b": 6558,
  "\u2581\u067f\u064a": 6559,
  "\u2581step": 6560,
  "dwe": 6561,
  "\u2581Jewish": 6562,
  "\u13b4": 6563,
  "\u2581greatest": 6564,
  "\u0bbf\u0ba9\u0bcd": 6565,
  "\u00ed\u00ed": 6566,
  "SE": 6567,
  "\u2581\u0432\u0435": 6568,
  "sai": 6569,
  "\u2581prop": 6570,
  "kli": 6571,
  "\u2581equal": 6572,
  "\u2581Roman": 6573,
  "\u2581proper": 6574,
  "\u2581leyi": 6575,
  "\u2581agi": 6576,
  "\u2581Before": 6577,
  "\u2581Another": 6578,
  "ED": 6579,
  "\u2581\u0635": 6580,
  "\u2581former": 6581,
  "\u0435\u0437": 6582,
  "\u2581Th": 6583,
  "\u2581bin": 6584,
  "\u09b7": 6585,
  "\u25812001": 6586,
  "rap": 6587,
  "\u2581Zo": 6588,
  "\u0632\u0627": 6589,
  "\u2581encourage": 6590,
  "ei": 6591,
  "\u0e41": 6592,
  "\u2581\u04e9\u0447\u0435\u043d": 6593,
  "\u057d\u057f": 6594,
  "\u258190": 6595,
  "\u2581South": 6596,
  "\u0643\u06d5": 6597,
  "\u2581kandi": 6598,
  "\u3060": 6599,
  "\u2581\u09af": 6600,
  "\u2581rejoice": 6601,
  "\u2581nuan": 6602,
  "\u0bb5\u0bc7": 6603,
  "\u2581column": 6604,
  "ose": 6605,
  "\u2581element": 6606,
  "\u2581stood": 6607,
  "\u0cb5\u0cc1": 6608,
  "\u2581helping": 6609,
  "baba": 6610,
  "\u2581\u0439\u04d5": 6611,
  "\u2581courage": 6612,
  "\u05e8\u05d5": 6613,
  "\u2581completely": 6614,
  "\u2581tha": 6615,
  "\u1201": 6616,
  "\u2581March": 6617,
  "\u2581directory": 6618,
  "\u1367": 6619,
  "\u2581January": 6620,
  "xu": 6621,
  "\u0eab": 6622,
  "\u2581\u0421\u0430": 6623,
  "\u2581leswi": 6624,
  "\u2581seeking": 6625,
  "\u2581nyen": 6626,
  "\u2581goes": 6627,
  "\u0f9f": 6628,
  "tun": 6629,
  "\u2581tag": 6630,
  "\u2581hari": 6631,
  "\u2581town": 6632,
  "\u0642\u062f": 6633,
  "\u2581background": 6634,
  "mor": 6635,
  "\u10dd\u10d1": 6636,
  "kani": 6637,
  "\u0626\u0627": 6638,
  "\u2581Sal": 6639,
  "\u2581\u0626\u06c8\u0686\u06c8\u0646": 6640,
  "hold": 6641,
  "\u2581meg": 6642,
  "\u2581sto": 6643,
  "\u2581della": 6644,
  "\u04e1": 6645,
  "\u2581g\u0127all": 6646,
  "\u0626\u0649": 6647,
  "tir": 6648,
  "14": 6649,
  "\u2581earlier": 6650,
  "\u2581steps": 6651,
  "\u2581xo": 6652,
  "\u0562": 6653,
  "ella": 6654,
  "\u0eb4\u0e94": 6655,
  "\u0cbf\u0caf": 6656,
  "\u0993": 6657,
  "\u13a5": 6658,
  "tou": 6659,
  "pela": 6660,
  "\u2581expect": 6661,
  "\u092e\u0947": 6662,
  "zon": 6663,
  "\u2581utai": 6664,
  "\u0430\u0439": 6665,
  "une": 6666,
  "\u0645\u06cc": 6667,
  "\u0dd3": 6668,
  "\u2581animal": 6669,
  "\u2581\u05db": 6670,
  "\u2581sila": 6671,
  "ule": 6672,
  "\u2581nona": 6673,
  "\u06ad\u0644\u0627\u0631": 6674,
  "\u043c\u0435\u0440": 6675,
  "baka": 6676,
  "anta": 6677,
  "\u2581congregations": 6678,
  "\u0eb9": 6679,
  "\u2581\u104f": 6680,
  "\u2581\u0905\u0938": 6681,
  "\u2581\u041d\u043e": 6682,
  "\u2581als": 6683,
  "\u9019": 6684,
  "\u2581w\u00e0": 6685,
  "\u2581vital": 6686,
  "\u2581\u0995\u09f0\u09be": 6687,
  "\u2581\u0431\u045e\u043b": 6688,
  "l\u00fa": 6689,
  "lles": 6690,
  "\u2581Aaron": 6691,
  "\u2581writing": 6692,
  "\u6027": 6693,
  "\u2581loss": 6694,
  "\u015fa": 6695,
  "gge": 6696,
  "\u2581\u10d2\u10d0": 6697,
  "\u100a\u103a": 6698,
  "\u2581September": 6699,
  "\u2581Bondye": 6700,
  "\u672c": 6701,
  "\u2581private": 6702,
  "\u2581\u0442\u0430\u043a": 6703,
  "\u062c\u0644": 6704,
  "\u2581endure": 6705,
  "\u2581forma": 6706,
  "\u2581hor": 6707,
  "\u2581Eve": 6708,
  "rhe": 6709,
  "\u1014": 6710,
  "\u2581\u0645\u0647": 6711,
  "\u049b\u04d9\u0430": 6712,
  "GenericName": 6713,
  "\u2581Life": 6714,
  "\u2581s\u00e5": 6715,
  "\u17c4": 6716,
  "\u2581\u3067": 6717,
  "\u0b36": 6718,
  "\u2581accounts": 6719,
  "\u2581Messenger": 6720,
  "\u0627\u062c": 6721,
  "\u2581\u12c8": 6722,
  "\u2581Yeesu": 6723,
  "\u2581\u0574\u056b": 6724,
  "\u062c\u0647": 6725,
  "git": 6726,
  "\u0f42\u0f66": 6727,
  "\u2581importance": 6728,
  "\u2581\u201c%": 6729,
  "\u044d\u0433": 6730,
  "\u043b\u044d\u043d": 6731,
  "\u2581ann": 6732,
  "\u2581responsible": 6733,
  "\u0eb2\u0e99": 6734,
  "\u067e\u0627": 6735,
  "entes": 6736,
  "\u0435\u043a": 6737,
  "too": 6738,
  "\u2581\u062c\u0646\u06be\u0646": 6739,
  "\u2581tongana": 6740,
  "iden": 6741,
  "\u064a\u0644": 6742,
  "\u0438\u043d\u0438": 6743,
  "\u2581yara": 6744,
  "\u2581\u0414\u043e": 6745,
  "\u25811)": 6746,
  "uda": 6747,
  "\u258117,": 6748,
  "sus": 6749,
  "\u0446\u044b": 6750,
  "\u0f54": 6751,
  "khulu": 6752,
  "\u067c": 6753,
  "\u2581nj\u00eb": 6754,
  "\u0649\u06ad\u0644\u0627\u0631": 6755,
  "\u1031\u102c\u1000\u103a": 6756,
  "bru": 6757,
  "\u2581running": 6758,
  "\u2581select": 6759,
  "kau": 6760,
  "\u2581bug": 6761,
  "o\u00f9": 6762,
  "\u2581\u062a\u06c6": 6763,
  "\u062c\u064a": 6764,
  "\u0443\u0443": 6765,
  "\u2581Change": 6766,
  "\u2581\u0426": 6767,
  "\u04e1\u0430": 6768,
  "\u2581firm": 6769,
  "\u258123.": 6770,
  "mili": 6771,
  "onan": 6772,
  "\u10e6": 6773,
  "\u2581inc": 6774,
  "\u03ce\u03bd": 6775,
  "zan": 6776,
  "\u2581kata": 6777,
  "kina": 6778,
  "TE": 6779,
  "\u2581minister": 6780,
  "\u2581weight": 6781,
  "\u2581\u0ca6": 6782,
  "\u062a\u0649\u0646": 6783,
  "\u09a8\u09bf": 6784,
  "\u2581standing": 6785,
  "\u2581iloa": 6786,
  "\u056b\u0581": 6787,
  "cc": 6788,
  "\u2581eh": 6789,
  "\u2581c\u1ee7a": 6790,
  "\u0445\u044b": 6791,
  "\u2581Sy": 6792,
  "\u2581\u043a\u04af": 6793,
  "\u2581provision": 6794,
  "TI": 6795,
  "nka": 6796,
  "\u2581\u0caa": 6797,
  "\u2581USA": 6798,
  "\u2581basi": 6799,
  "\u2581\u0928\u093f": 6800,
  "y\u00e8": 6801,
  "\u0192e": 6802,
  "imi": 6803,
  "\u2581kal": 6804,
  "\u2581trials": 6805,
  "\u2581terms": 6806,
  "\u2581knowing": 6807,
  "\u2581quixye": 6808,
  "\u00e9n": 6809,
  "lau": 6810,
  "papa": 6811,
  "\u2581\u13a5\u13dd": 6812,
  "\u2581(1)": 6813,
  "\u2581evening": 6814,
  "\u2581desktop": 6815,
  "\u2581sleep": 6816,
  "\u0d24\u0d3f": 6817,
  "\u2581sol": 6818,
  "\u2581val": 6819,
  "\u2581\u3057": 6820,
  "\u2581k\u0101": 6821,
  "\u2581humble": 6822,
  "\u2581Behold": 6823,
  "\u2581\u10d4": 6824,
  "\u2581kuli": 6825,
  "\u2581chapter": 6826,
  "MP": 6827,
  "\u2581Make": 6828,
  "esi": 6829,
  "\u0917\u093e": 6830,
  "gere": 6831,
  "\u0a35\u0a3e": 6832,
  "\u0411": 6833,
  "\u0256o": 6834,
  "\u0c9a": 6835,
  "\u2581\u0634\u062f": 6836,
  "ans": 6837,
  "\u2581improve": 6838,
  "\u2581color": 6839,
  "\u04bb\u0430": 6840,
  "\u2581answers": 6841,
  "\u0644\u0629": 6842,
  "lar\u0131": 6843,
  "ica": 6844,
  "\u2581assistance": 6845,
  "peri": 6846,
  "\u2581Invalid": 6847,
  "\u2581lia": 6848,
  "\u2581\u0989": 6849,
  "IT": 6850,
  "\u2581\u0432\u0438\u0434": 6851,
  "\u1261": 6852,
  "illu": 6853,
  "\u30f3": 6854,
  "\u2581operation": 6855,
  "\u0f0b\u0f54": 6856,
  "\u2581reference": 6857,
  "\u2581\u06af\u0627": 6858,
  "\u2581looked": 6859,
  "\u2581\u13da": 6860,
  "\u2581m\u00e5": 6861,
  "\u0d38": 6862,
  "\u2581\u068f": 6863,
  "\u2581major": 6864,
  "\u2581reira": 6865,
  "pera": 6866,
  "turi": 6867,
  "\u2581aya": 6868,
  "pas": 6869,
  "v\u00e4": 6870,
  "lich": 6871,
  "\u0142o": 6872,
  "\u2581Also": 6873,
  "\u2581\u049b\u0438\u043b": 6874,
  "\u2581camp": 6875,
  "\u2581interests": 6876,
  "\u258119,": 6877,
  "\u057e": 6878,
  "\u0d3f\u0d15\u0d4d\u0d15": 6879,
  "less": 6880,
  "bon": 6881,
  "\u2581Jewova": 6882,
  "\u2581\u055d": 6883,
  "\u2581Ac": 6884,
  "Me": 6885,
  "\u2581niya": 6886,
  "\u610f": 6887,
  "\u2581Line": 6888,
  "j\u0105": 6889,
  "\u2581note": 6890,
  "\u2581Colour": 6891,
  "risi": 6892,
  "liga": 6893,
  "\u2581\u0c07": 6894,
  "\u0e0a": 6895,
  "ement": 6896,
  "\u043d\u04d7": 6897,
  "\u2581practical": 6898,
  "\u0626\u06cc": 6899,
  "Mo": 6900,
  "\u2581additional": 6901,
  "\u0433\u0456": 6902,
  "\u2581riki": 6903,
  "\u2581ju\u00f5n": 6904,
  "amu": 6905,
  "\u2581\u043a\u0443\u0440": 6906,
  "\u2581pressure": 6907,
  "\u5f97": 6908,
  "\u062e\u0627": 6909,
  "sana": 6910,
  "\u0cb5\u0ca8\u0ccd\u0ca8\u0cc1": 6911,
  "\u043c\u0430\u0442": 6912,
  "\u0699": 6913,
  "\u2581gods": 6914,
  "\u2581learning": 6915,
  "\u2581chiru": 6916,
  "\u0440\u0456": 6917,
  "\u017ce": 6918,
  "\u2581ele": 6919,
  "\u2581\u0627\u0644\u0633": 6920,
  "\u2581Oo": 6921,
  "\u2581\u0160": 6922,
  "\u2581probably": 6923,
  "\u0d36": 6924,
  "\u2581quin": 6925,
  "dala": 6926,
  "\u2581Files": 6927,
  "\u2581mon": 6928,
  "\u2581cover": 6929,
  "vad": 6930,
  "\u062c\u0648": 6931,
  "\u0bbe\u0ba9": 6932,
  "\u2581\u0628\u0627\u0631": 6933,
  "sing": 6934,
  "\u2581\u05d0\u05d5": 6935,
  "fai": 6936,
  "\u2581\u0442\u0430\u0442\u0430": 6937,
  "\u2581\u044d\u0440": 6938,
  "\u2581bare": 6939,
  "\u2581ami": 6940,
  "\u2581dre": 6941,
  "\u2581nh": 6942,
  "\u064a\u0621": 6943,
  "\u2581sus": 6944,
  "\u0441\u0442\u0432\u0430": 6945,
  "\u05e0\u05d8": 6946,
  "\u0bb0\u0bbf": 6947,
  "str": 6948,
  "ice": 6949,
  "\u2581\u13a8\u13d2\u13a2": 6950,
  "\u044b\u043d\u044b": 6951,
  "\u2581appreciation": 6952,
  "\u06a9\u0627\u0646\u06cc": 6953,
  "\u2581\u0634\u0645\u0627": 6954,
  "\u2581\u0443\u044b\u0439": 6955,
  "d\u00f3": 6956,
  "kp\u0254": 6957,
  "\u2581exist": 6958,
  "\u043d\u043e\u0439": 6959,
  "omu": 6960,
  "\u2581exists": 6961,
  "\u2581Que": 6962,
  "\u09f0\u09bf": 6963,
  "\u03b5\u03c2": 6964,
  "\u00e7a": 6965,
  "\u2581karo": 6966,
  "\u2581ahead": 6967,
  "\u2581April": 6968,
  "\u2581\u062a\u06d5": 6969,
  "\u2581increased": 6970,
  "\u2581lack": 6971,
  "nana": 6972,
  "\u0dba\u0dcf": 6973,
  "\u2581Les": 6974,
  "\u2581\u1798\u17b6\u1793": 6975,
  "\u0430\u043d\u044b": 6976,
  "uf": 6977,
  "\u1e6d": 6978,
  "\u2581network": 6979,
  "\u04f1": 6980,
  "pati": 6981,
  "pai": 6982,
  "\u062f\u0631": 6983,
  "\u12ca": 6984,
  "\u06ab": 6985,
  "Stock": 6986,
  "\u2581cur": 6987,
  "ial": 6988,
  "\u2581spread": 6989,
  "\u2581io": 6990,
  "\u2581\u0628\u0646": 6991,
  "\u2013": 6992,
  "\u6210": 6993,
  "\u2581\u015f": 6994,
  "klu": 6995,
  "\u011f\u0131": 6996,
  "\u2581lwa": 6997,
  "ndar": 6998,
  "\u2581\u1e5aebbi": 6999,
  "\u60f3": 7000,
  "\u2581ayo": 7001,
  "\u2581qai": 7002,
  "\u2581cara": 7003,
  "\u2581fre": 7004,
  "\u1338": 7005,
  "\u1243": 7006,
  "\u2581euro": 7007,
  "\u2581Ur": 7008,
  "\u2581dei": 7009,
  "\u0430\u043a": 7010,
  "\u2581jej": 7011,
  "ato": 7012,
  "\u044b\u0433": 7013,
  "\u2581theme": 7014,
  "\u2581iku": 7015,
  "\u0bc2": 7016,
  "\u2581Xa": 7017,
  "\u2581oil": 7018,
  "tten": 7019,
  "\u2581\u092d": 7020,
  "\u0acd\u0aaf": 7021,
  "\u2581riq\u00dfuin": 7022,
  "\u09b2\u09bf": 7023,
  "\u0ec9\u0eb2": 7024,
  "\u2581\u09b8\u0982": 7025,
  "\u2581\u0448\u0442\u043e": 7026,
  "\u2581jew": 7027,
  "Ko": 7028,
  "\u0107i": 7029,
  "\u0f63": 7030,
  "\u2581setting": 7031,
  "ST": 7032,
  "\u0440\u0430\u043a": 7033,
  "\u2581\u043a\u0430\u0439": 7034,
  "\u0cb7": 7035,
  "\u0d32\u0d4d\u0d32": 7036,
  "\u101e\u1031\u102c": 7037,
  "misi": 7038,
  "\u4ec0\u4e48": 7039,
  "\u0647\u0627\u06cc": 7040,
  "\u2581\u0909\u0938": 7041,
  "\u0e49\u0e32": 7042,
  "\u2581\u062f\u06cc": 7043,
  "\u4e5f": 7044,
  "TO": 7045,
  "\u01e7": 7046,
  "\u2581hast": 7047,
  "ME": 7048,
  "\u2581tam": 7049,
  "wara": 7050,
  "\u6216": 7051,
  "\u2581screen": 7052,
  "\u0ba3": 7053,
  "\u2581\u12a5\u1272": 7054,
  "\u25812012": 7055,
  "\u2581studies": 7056,
  "\u2581effects": 7057,
  "t\u0173": 7058,
  "lung": 7059,
  "\u10d4\u10da": 7060,
  "\u011fa": 7061,
  "\u04b3\u04d9\u0430": 7062,
  "\u2581towards": 7063,
  "\u2581mighty": 7064,
  "\u2581sometimes": 7065,
  "\u2581sword": 7066,
  "\u2581refer": 7067,
  "\u0448\u04d9": 7068,
  "\u0c97\u0cb3": 7069,
  "p\u00e1": 7070,
  "\u2581society": 7071,
  "\u2581\u0628\u0649\u0631": 7072,
  "ev": 7073,
  "\u17c9": 7074,
  "\u0939\u093e": 7075,
  "\u2581jo\u00df": 7076,
  "\u0ec8\u0eb2": 7077,
  "\u2581lose": 7078,
  "\u2581\u1290\u12cd": 7079,
  "\u2581kudu": 7080,
  "\u13f0\u13c3": 7081,
  "\u0b5f": 7082,
  "\u2581Help": 7083,
  "\u2581\u0bb5\u0bbf": 7084,
  "\u0f92": 7085,
  "\u2581\u0562": 7086,
  "\u90fd": 7087,
  "\u2581prie": 7088,
  "\u2581\u0642\u0648\u0645": 7089,
  "\u2581brings": 7090,
  "t\u00e3": 7091,
  "\u043d\u044d": 7092,
  "\u2581\u0442\u0443\u0440\u0433\u0430\u043d": 7093,
  "\u2581aware": 7094,
  "\u0936\u093e": 7095,
  "z\u00e9": 7096,
  "\u2581safe": 7097,
  "\u258180": 7098,
  "nam": 7099,
  "\u2581s\u1ecd": 7100,
  "\u0432\u0430\u0440": 7101,
  "linga": 7102,
  "\u2581safety": 7103,
  "\u2581basic": 7104,
  "vent": 7105,
  "\u2581purposes": 7106,
  "r\u00e0": 7107,
  "\u2581oli": 7108,
  "\u2581vun": 7109,
  "\u0303": 7110,
  "\u2581\u06af\u06d2": 7111,
  "\u13ea\u13ce": 7112,
  "\u2581Print": 7113,
  "\u2581\u0ea5": 7114,
  "\u2581proved": 7115,
  "AT": 7116,
  "\u2581\u0430\u0441": 7117,
  "mera": 7118,
  "\u4e8e": 7119,
  "\u0e08\u0e30": 7120,
  "\u2581Kristian": 7121,
  "\u2581realize": 7122,
  "\u2581m\u00eb": 7123,
  "\u2581invited": 7124,
  "\u2581cikin": 7125,
  "\u2581=": 7126,
  "\u2581aomata": 7127,
  "Di": 7128,
  "\u2581kasi": 7129,
  "\u2581\u0438\u043c\u0430": 7130,
  "kti": 7131,
  "\u2581Having": 7132,
  "\u2581community": 7133,
  "sas": 7134,
  "\u2581begin": 7135,
  "\u2581Nya": 7136,
  "\u2581\u0256e": 7137,
  "ient": 7138,
  "\u2581mati": 7139,
  "\u2581valid": 7140,
  "\u0448\u0442\u0430": 7141,
  "hua": 7142,
  "\u2581\u0626\u06ce\u0648\u0647": 7143,
  "\u1ee5r\u1ee5": 7144,
  "\u0c15\u0c4d": 7145,
  "\u064a\u062f": 7146,
  "\u2581Saksi": 7147,
  "\u2581selection": 7148,
  "\u2581Musa": 7149,
  "\u0443\u0441": 7150,
  "\u2581\u0442\u04d9": 7151,
  "\u2581dalam": 7152,
  "isti": 7153,
  "\u2581pati": 7154,
  "\u2581\u0437\u043d\u0430": 7155,
  "\u0947\u0902": 7156,
  "\u2581reflect": 7157,
  "dal": 7158,
  "\u2581saya": 7159,
  "\u10e0\u10d7": 7160,
  "\u2581bana": 7161,
  "\u2581goal": 7162,
  "\u2581mali": 7163,
  "\u2581Anij": 7164,
  "\u2581win": 7165,
  "reg": 7166,
  "reke": 7167,
  "\u0cbe\u0ca6": 7168,
  "gram": 7169,
  "\u2581biso": 7170,
  "\u2581godly": 7171,
  "\u2581minn": 7172,
  "\u2581fua": 7173,
  "\u0561\u056c": 7174,
  "\u2581\u0430\u043d": 7175,
  "\u2581fia": 7176,
  "tz\u00df": 7177,
  "\u2581eki": 7178,
  "\u2581\u0442\u0443\u0440\u0430\u0440": 7179,
  "\u0691": 7180,
  "\u04d5\u0440": 7181,
  "\u25812013": 7182,
  "sty": 7183,
  "dhi": 7184,
  "\u2581\u00e7a": 7185,
  "\u0db1\u0dca\u0db1": 7186,
  "New": 7187,
  "\u2581\u03c3": 7188,
  "\u2581dili": 7189,
  "\u2581Enable": 7190,
  "\u2581entry": 7191,
  "yd": 7192,
  "\u2581\u0410\u043b\u043b\u0430": 7193,
  "ade": 7194,
  "fn": 7195,
  "\u2581\u055e": 7196,
  "\u03c3\u03c4": 7197,
  "\u2581sch": 7198,
  "\u0442\u0438\u0432": 7199,
  "\u2581systems": 7200,
  "\u2581\u0e99\u0eb1\u0ec9\u0e99": 7201,
  "\u2581ik": 7202,
  "\u2581\u0c0e": 7203,
  "onse": 7204,
  "\u2581EUR": 7205,
  "\u2581aha": 7206,
  "\u0447\u0443": 7207,
  "\u2581\u06af\u0647": 7208,
  "\u2581ino": 7209,
  "\u0b33": 7210,
  "\u2581\u0caa\u0ccd\u0cb0": 7211,
  "\u2581Rom": 7212,
  "\u2581exp": 7213,
  "\u2581interested": 7214,
  "ated": 7215,
  "\u2581iman": 7216,
  "\u10e0\u10d0": 7217,
  "pot": 7218,
  "\u2581prayed": 7219,
  "nun": 7220,
  "\u2581Next": 7221,
  "\u2581ike": 7222,
  "\u2581\u0627\u0644\u0628": 7223,
  "\u2581eius": 7224,
  "\u2581faire": 7225,
  "\u1019\u103a\u1038": 7226,
  "\u4e3b": 7227,
  "\u2581\u03c0\u03bf\u03c5": 7228,
  "\u2581Jiih\u00f3vah": 7229,
  "iste": 7230,
  "\u0aa4\u0abe": 7231,
  "\u2581\u041d\u0438": 7232,
  "\u2581ikai": 7233,
  "\u2581thousands": 7234,
  "\u2581biz": 7235,
  "\u0561\u056f\u0561\u0576": 7236,
  "\u2581Har": 7237,
  "\u2581\u05d3\u05e2\u05e8": 7238,
  "\u2581bere": 7239,
  "\u0443\u043f": 7240,
  "\u2581l\u00e2": 7241,
  "try": 7242,
  "\u2581seeing": 7243,
  "\u0565\u0582": 7244,
  "\u2581\u0628\u06a9\u0647": 7245,
  "\u2581\u13a4\u13be": 7246,
  "\u2581articles": 7247,
  "\u09cd\u09ac": 7248,
  "\u2581gathered": 7249,
  "17": 7250,
  "\u2581teie": 7251,
  "\u2581\u0c28\u0c3f": 7252,
  "\u0576\u0579": 7253,
  "\u06ce\u06a9\u06cc": 7254,
  "\u0633\u062a\u0647": 7255,
  "\u10d4\u10d1\u10d8\u10e1": 7256,
  "\u2581Start": 7257,
  "\u2581bara": 7258,
  "\u0440\u0430\u0432": 7259,
  "\u0e9e": 7260,
  "mite": 7261,
  "\u062a\u0644": 7262,
  "ania": 7263,
  "\u2581\u0628\u0631\u0627\u06cc": 7264,
  "\u2581nama": 7265,
  "\u2581sti": 7266,
  "encia": 7267,
  "nomi": 7268,
  "\u2581t\u00e9": 7269,
  "\u2581\u0627\u0644\u0625": 7270,
  "\u2581front": 7271,
  "\u2581kol\u0101": 7272,
  "\u2581+": 7273,
  "\u13f0": 7274,
  "\u2581\u044d\u0448": 7275,
  "\u2581\u03bc": 7276,
  "\u093e\u0924": 7277,
  "\u2581reported": 7278,
  "\u2581thu": 7279,
  "\u2581story": 7280,
  "maki": 7281,
  "\u2581sum": 7282,
  "lot": 7283,
  "\u2581disease": 7284,
  "\u2581\u0a26\u0a3e": 7285,
  "\u043a\u0430\u0437": 7286,
  "\u2581\u120d": 7287,
  "\u0a1a": 7288,
  "\u2581q": 7289,
  "\u2581\u0263er": 7290,
  "\u2581Government": 7291,
  "\u2581forgiveness": 7292,
  "\u0437\u043e": 7293,
  "\u2581Last": 7294,
  "\u2581Jesu": 7295,
  "\u2581tout": 7296,
  "\u2581\u0a8f": 7297,
  "\u2581workers": 7298,
  "\u2581bat": 7299,
  "Ba": 7300,
  "\u2581\u043e\u0440": 7301,
  "\u2581Tusi": 7302,
  "\u2581Decision": 7303,
  "\u0b4d\u0b5f": 7304,
  "\u04d9\u0440": 7305,
  "\u2581Tab": 7306,
  "\u3093": 7307,
  "\u80fd": 7308,
  "\u2581settings": 7309,
  "\u2581Find": 7310,
  "zera": 7311,
  "tivo": 7312,
  "\u0438\u0434": 7313,
  "\u2581ons": 7314,
  "\u2581prepare": 7315,
  "\u2581November": 7316,
  "\u3067": 7317,
  "\u2581leis": 7318,
  "erunt": 7319,
  "\u067a": 7320,
  "\u2581\u10ec": 7321,
  "\u2581rate": 7322,
  "ci\u00f3": 7323,
  "m\u00ed": 7324,
  "\u2581Court": 7325,
  "\u2581\u0aaa": 7326,
  "\u2581\u0918": 7327,
  "\u021bi": 7328,
  "\u2581tabata": 7329,
  "\u2581\u0440\u043e": 7330,
  "\u2581goals": 7331,
  "yag": 7332,
  "\u2581Bir": 7333,
  "riri": 7334,
  "\u0d1f\u0d4d\u0d1f": 7335,
  "ungen": 7336,
  "\u0441\u0441\u0438": 7337,
  "aku": 7338,
  "\u2581production": 7339,
  "sek": 7340,
  "\u0928\u0940": 7341,
  "die": 7342,
  "\u00f4l": 7343,
  "\u2581discuss": 7344,
  "\u2581asking": 7345,
  "\u2581zvi": 7346,
  "\u2581walking": 7347,
  "laga": 7348,
  "\u00bb,": 7349,
  "gat": 7350,
  "\u2581nji": 7351,
  "\u2581xuku": 7352,
  "wul": 7353,
  "\u2581izi": 7354,
  "\u2581worldwide": 7355,
  "\u2581nach": 7356,
  "\u2581regional": 7357,
  "\u258137": 7358,
  "\u13e4": 7359,
  "kiri": 7360,
  "\u2581p\u0113": 7361,
  "\u2581enemy": 7362,
  "\u2581ita": 7363,
  "cial": 7364,
  "ndre": 7365,
  "rif": 7366,
  "gne": 7367,
  "\u2581ore": 7368,
  "\u2581w\u1ecdn": 7369,
  "Stencils": 7370,
  "bbi": 7371,
  "\u2581manma": 7372,
  "\u2581\u0ec3\u0e94": 7373,
  "ndaka": 7374,
  "\u2581\u00d6": 7375,
  "\u2581mbo": 7376,
  "l\u00eb": 7377,
  "m\u00e4": 7378,
  "ddu": 7379,
  "Jehovah": 7380,
  "ande": 7381,
  "\u0a38\u0a3e": 7382,
  "\u2581bodies": 7383,
  "\u2581\u0c28": 7384,
  "\u03b1\u03bd": 7385,
  "wat": 7386,
  "\u0e21\u0e32": 7387,
  "\u0cb8\u0ccd": 7388,
  "\u2581\u0419": 7389,
  "\u2581mari": 7390,
  "idae": 7391,
  "\u2581\u0e40": 7392,
  "\u0438\u0434\u0430": 7393,
  "\u04b1": 7394,
  "zwi": 7395,
  "\u5979": 7396,
  "\u2581prevent": 7397,
  "\u2581\u0632\u0645\u06cc\u0646": 7398,
  "\u2581property": 7399,
  "\u05e2\u05dc": 7400,
  "\u2581Yakuwa": 7401,
  "\u0435\u0440\u0433\u04d9": 7402,
  "\u2581dar": 7403,
  "\u2581Love": 7404,
  "\u2581granted": 7405,
  "\u12a1": 7406,
  "\u13cd": 7407,
  "\u770b": 7408,
  "\u2581k\u00f5n": 7409,
  "cen": 7410,
  "\u8fd9": 7411,
  "\u2581iyang": 7412,
  "ema": 7413,
  "\u043d\u0438\u043d\u0435": 7414,
  "\u2581Pictures": 7415,
  "\u2581mili": 7416,
  "\u2581applications": 7417,
  "ET": 7418,
  "\u2581expressed": 7419,
  "\u5229": 7420,
  "\u2581\u0e81\u0ecd": 7421,
  "\u2581regularly": 7422,
  "toj": 7423,
  "\u7406": 7424,
  "\u2581\u0a1c": 7425,
  "\u2581Convention": 7426,
  "\u2581particularly": 7427,
  "\u5236": 7428,
  "swa": 7429,
  "\u2581Kan": 7430,
  "\u2581\u0447\u0442\u043e": 7431,
  "DA": 7432,
  "guna": 7433,
  "\u1eaf": 7434,
  "biri": 7435,
  "j\u0101": 7436,
  "\u101a\u103a": 7437,
  "\u2581link": 7438,
  "ppa": 7439,
  "hang": 7440,
  "flu": 7441,
  "dad": 7442,
  "\u0632\u0649": 7443,
  "\u2581\u0d2a\u0d4d\u0d30": 7444,
  "t\u00f2": 7445,
  "\u0939\u093f": 7446,
  "\u12a0": 7447,
  "\u2581encouraged": 7448,
  "\u10d4\u10d7": 7449,
  "\u2581\u10db\u10d8": 7450,
  "\u09c3": 7451,
  "\u2581books": 7452,
  "\u03b1\u03b9": 7453,
  "skap": 7454,
  "\u0628\u064a": 7455,
  "\u2581vanhu": 7456,
  "\u2581Tapu": 7457,
  "rab": 7458,
  "ating": 7459,
  "\u2581manush": 7460,
  "\u06cc\u0631": 7461,
  "\u2581que\u00df": 7462,
  "\u2581\u0ec1": 7463,
  "\u2581yee": 7464,
  "\u0b15\u0b3e": 7465,
  "\u0dd4": 7466,
  "\u2581eight": 7467,
  "\u2581Others": 7468,
  "\u91cc": 7469,
  "\u2581\u0430\u0439\u0442": 7470,
  "zel": 7471,
  "\u2581autem": 7472,
  "apa": 7473,
  "\u2581currently": 7474,
  "\u0457": 7475,
  "\u2581Au": 7476,
  "\u2581k\u00e4": 7477,
  "\u2581Pag": 7478,
  "nova": 7479,
  "\u6700": 7480,
  "\u2581Import": 7481,
  "\u2581pis": 7482,
  "\u2581elder": 7483,
  "b\u00ed": 7484,
  "mark": 7485,
  "\u13cc": 7486,
  "\u2581principle": 7487,
  "\u2581fana": 7488,
  "\u2581branch": 7489,
  "\u062f\u0629": 7490,
  "\u2581^": 7491,
  "\u2581jin": 7492,
  "\u2581Hence": 7493,
  "\u2581Settings": 7494,
  "\u2581haere": 7495,
  "bis": 7496,
  "\u2581\u0440\u0430": 7497,
  "py": 7498,
  "\u2581\u0410\u043b\u043b\u0430\u04bb": 7499,
  "\u2581import": 7500,
  "\u2581sig": 7501,
  "\u258118,": 7502,
  "\u0434\u043e\u043b": 7503,
  "\u2581\u0411\u0438\u0431\u043b\u0438": 7504,
  "\u0b27": 7505,
  "\u2581Auto": 7506,
  "\u0bb1": 7507,
  "bantu": 7508,
  "\u2581tera": 7509,
  "raj": 7510,
  "\u2581Kuri": 7511,
  "\u0b16": 7512,
  "\u101b\u102c": 7513,
  "\u2581Ste": 7514,
  "\u2581pana": 7515,
  "\u2581code": 7516,
  "\u2581displayed": 7517,
  "niya": 7518,
  "\u258122.": 7519,
  "\u2581\u03b7": 7520,
  "\u2581uru": 7521,
  "\u2581uu": 7522,
  "\u2581\u0e99\u0eb5\u0ec9": 7523,
  "\u2581\u043c\u04d7\u043d": 7524,
  "My": 7525,
  "zyi": 7526,
  "b\u00e2nu": 7527,
  "\u2581online": 7528,
  "\u2581\u1e63": 7529,
  "dang": 7530,
  "rri": 7531,
  "\u2581mountains": 7532,
  "\u0630\u0627": 7533,
  "ugu": 7534,
  "jy": 7535,
  "\u2581\u0444\u04d5": 7536,
  "\u2581ud": 7537,
  "luka": 7538,
  "\u2581Val": 7539,
  "ments": 7540,
  "\u2581komp": 7541,
  "\u2581bw": 7542,
  "\u03c4\u03b7": 7543,
  "\u0c9f": 7544,
  "\u2581\u0939\u0948\u0902": 7545,
  "\u0c32\u0c3f": 7546,
  "\u304f": 7547,
  "\u2581mer": 7548,
  "\u2581\u00e0ti": 7549,
  "\u2581\u12ad": 7550,
  "si\u00f3n": 7551,
  "mission": 7552,
  "\u2581developed": 7553,
  "\u2581ger": 7554,
  "\u2581\u0995\u09f0\u0995": 7555,
  "\u2581\u10e3": 7556,
  "\u1039": 7557,
  "US": 7558,
  "\u13cd\u13d3": 7559,
  "dam": 7560,
  "\u2581\u10e0\u10d0": 7561,
  "\u2581akon": 7562,
  "\u1031\u102c": 7563,
  "\u59d4\u5458\u4f1a": 7564,
  "\u1797": 7565,
  "\u2581\u0995\u09bf": 7566,
  "\u2581late": 7567,
  "uku": 7568,
  "\u2581Each": 7569,
  "\u2581music": 7570,
  "\u2581rumal": 7571,
  "\u2581tei": 7572,
  "\u2581lies": 7573,
  "\u2581\u043c\u0435\u043d": 7574,
  "col": 7575,
  "\u2581\u0a85": 7576,
  "ging": 7577,
  "ota": 7578,
  "\u09ad": 7579,
  "nso": 7580,
  "\u2581\u0d35\u0d3f": 7581,
  "ets": 7582,
  "\u2581details": 7583,
  "\u2581\u062e\u0647": 7584,
  "muli": 7585,
  "\u03b6": 7586,
  "\u0d3f\u0d2f": 7587,
  "dro": 7588,
  "\u2581\u0637": 7589,
  "ius": 7590,
  "\u2581leaders": 7591,
  "EG": 7592,
  "\u2581vision": 7593,
  "\u2581n\u00e8k": 7594,
  "fec": 7595,
  "\u2581\u0ca8": 7596,
  "\u0acd\u0aaf\u0abe": 7597,
  "\u10d6\u10d4": 7598,
  "\u2581\u09a8\u09be": 7599,
  "\u2581archive": 7600,
  "\u2581\u0627\u0644\u062d": 7601,
  "\u2581aho": 7602,
  "\u101e\u102d\u102f\u1037": 7603,
  "\u2581\u0633\u0631": 7604,
  "shobora": 7605,
  "\u0686\u0627": 7606,
  "\u2581recent": 7607,
  "\u2581lai": 7608,
  "\u2581Ap": 7609,
  "\u13af\u13f3": 7610,
  "\u2581explain": 7611,
  "\u53ef": 7612,
  "\u2581\u12f0": 7613,
  "\u2581Perhaps": 7614,
  "\u2581explains": 7615,
  "\u2581harm": 7616,
  "\u90e8": 7617,
  "\u258124.": 7618,
  "gno": 7619,
  "\u2581eine": 7620,
  "\u2581darkness": 7621,
  "\u5176": 7622,
  "\u2581\u0436\u0435": 7623,
  "\u062f\u064a": 7624,
  "\u2581raz": 7625,
  "Be": 7626,
  "\u8bf4": 7627,
  "\u2581\u0939\u092e": 7628,
  "\u2581attend": 7629,
  "\u2581\u043c\u0435\u043d\u0435\u043d": 7630,
  "\u1291": 7631,
  "\u2581expected": 7632,
  "\u2581\u0411\u0443": 7633,
  "\u0ca8\u0cc6": 7634,
  "swe": 7635,
  "\u2581Isi": 7636,
  "gawa": 7637,
  "v\u00ed": 7638,
  "\u05e8\u05d9": 7639,
  "\u2581dig": 7640,
  "\u2581\u0564": 7641,
  "\u2581\u0627\u0644\u062c": 7642,
  "\u2581\u0627\u0644\u0639": 7643,
  "\u2581\u043f\u04d7\u0440": 7644,
  "\u56fd\u5bb6": 7645,
  "\u2581ireo": 7646,
  "\u2581bet": 7647,
  "\u2581\u0425\u0443\u0434\u043e": 7648,
  "RO": 7649,
  "enza": 7650,
  "\u0442\u0438\u0440": 7651,
  "\u2581Tim": 7652,
  "dio": 7653,
  "\u017ci": 7654,
  "\u0b40": 7655,
  "soq": 7656,
  "m\u00e3": 7657,
  "\u2581\u043c\u0435\u043d\u04d9\u043d": 7658,
  "a\u00f1": 7659,
  "\u2581volume": 7660,
  "NI": 7661,
  "\u2581negative": 7662,
  "\u2581naj": 7663,
  "\u2581Enter": 7664,
  "\u2581\u0628\u0648\u0644": 7665,
  "illa": 7666,
  "\u067d": 7667,
  "\u2581\u0192e": 7668,
  "\u2581court": 7669,
  "\u2581\u043c\u0438\u043d": 7670,
  "kora": 7671,
  "\u2581sereta": 7672,
  "\u10d3\u10d8": 7673,
  "\u0c48": 7674,
  "\u2581\u0626\u06c7\u0644\u0627\u0631\u0646\u0649\u06ad": 7675,
  "\u2581verily": 7676,
  "\u0644\u0648": 7677,
  "lenge": 7678,
  "\u2581\u0935\u093e": 7679,
  "\u2581manga": 7680,
  "k\u00e3": 7681,
  "\u03bf\u03c1": 7682,
  "\u2581foreign": 7683,
  "\u2581\u1796\u17d2\u179a\u17c7": 7684,
  "\u2581grand": 7685,
  "\u2581previous": 7686,
  "\u2581mina": 7687,
  "AM": 7688,
  "\u2581Assembly": 7689,
  "\u0438\u0442\u044c": 7690,
  "\u2581nisi": 7691,
  "\u0ac1\u0a82": 7692,
  "\u2581lalu": 7693,
  "\u062f\u06cc": 7694,
  "\u099f\u09bf": 7695,
  "\u2581Ali": 7696,
  "\u2581nuk": 7697,
  "taj": 7698,
  "\u2581Et": 7699,
  "m\u011b": 7700,
  "\u2581becoming": 7701,
  "\u0159": 7702,
  "\u2581road": 7703,
  "\u0445\u043e\u0434": 7704,
  "siya": 7705,
  "ph": 7706,
  "\u2581m\u0259": 7707,
  "\u2581lalolagi": 7708,
  "ls": 7709,
  "jon": 7710,
  "\u00f0i": 7711,
  "\u00e2l": 7712,
  "\u2581task": 7713,
  "sie": 7714,
  "\u2581ben": 7715,
  "\u2581\u0c35\u0c3f": 7716,
  "bla": 7717,
  "\u2581dwell": 7718,
  "\u2581hurt": 7719,
  "\u3063": 7720,
  "\u12cd\u1295": 7721,
  "IM": 7722,
  "\u0d15\u0d4d\u0d37": 7723,
  "\u25812014": 7724,
  "\u0e97": 7725,
  "\u2581nit": 7726,
  "\u2581Tau": 7727,
  "\u2581g\u0127al": 7728,
  "\u2581multi": 7729,
  "\u2581\u0926\u093f": 7730,
  "\u2581dialogue": 7731,
  "\u2581Asia": 7732,
  "\u2581\u13d3": 7733,
  "color": 7734,
  "\u2581range": 7735,
  "\u2581l\u00e4": 7736,
  "\u03be": 7737,
  "piri": 7738,
  "\u0a27": 7739,
  "\u2581challenge": 7740,
  "\u2581spent": 7741,
  "\u00f1u": 7742,
  "\u2581hoko": 7743,
  "ase": 7744,
  "\u0981": 7745,
  "\u2581aus": 7746,
  "\u0d15\u0d4d\u0d15\u0d4d": 7747,
  "\u1275\u1295": 7748,
  "\u2581nia": 7749,
  "inne": 7750,
  "\u0d23\u0d4d\u0d1f": 7751,
  "\u2581blind": 7752,
  "\u2581aron": 7753,
  "\u0bb3": 7754,
  "\u2581hende": 7755,
  "\u2581m\u00fc": 7756,
  "\u2581Later": 7757,
  "\u2581feeling": 7758,
  "\u0a2a": 7759,
  "neq": 7760,
  "\u2581battle": 7761,
  "\u660e": 7762,
  "\u2581cost": 7763,
  "\u039f": 7764,
  "\u0441\u0456": 7765,
  "rij": 7766,
  "\u0f50": 7767,
  "\u2581si\u0119": 7768,
  "\u0938\u0947": 7769,
  "\u123d": 7770,
  "\u2581Copy": 7771,
  "\u2581occurred": 7772,
  "\u2581limited": 7773,
  "\u2581\u010c": 7774,
  "\u2581sit": 7775,
  "\u0a30\u0a3e": 7776,
  "\u2581\u091c\u094b": 7777,
  "\u2581Joshua": 7778,
  "\u0c9f\u0ccd\u0c9f": 7779,
  "obo": 7780,
  "\u2581\u0561\u0576": 7781,
  "\u0633\u06d5": 7782,
  "\u2581\u00cc": 7783,
  "naan": 7784,
  "\u2581\u0110": 7785,
  "\u2581challenges": 7786,
  "\u2581\u13d5": 7787,
  "\u2581mani": 7788,
  "kile": 7789,
  "\u2581tabe": 7790,
  "\u25813)": 7791,
  "\u0e30": 7792,
  "noa": 7793,
  "\u2581Thou": 7794,
  "\u90a3": 7795,
  "\u2581bien": 7796,
  "n\u00ec": 7797,
  "\u258139": 7798,
  "\u2581taku": 7799,
  "\u043d\u043e\u043c": 7800,
  "\u65b0": 7801,
  "\u2581psalmist": 7802,
  "\u2581significant": 7803,
  "EF": 7804,
  "\u129b": 7805,
  "\u2581\u043c\u04e9": 7806,
  "\u4e0e": 7807,
  "pal": 7808,
  "\u2581Home": 7809,
  "wiri": 7810,
  "nim": 7811,
  "\u2581species": 7812,
  "\u2581\u0b15\u0b30\u0b28\u0b4d\u0b24\u0b41": 7813,
  "\u2581review": 7814,
  "\u2581agreement": 7815,
  "\u0943": 7816,
  "\u2581weeks": 7817,
  "\u2581\u1793\u17c5": 7818,
  "\u2581Tuhan": 7819,
  "inna": 7820,
  "\u2581\u03b1\u03c0\u03cc": 7821,
  "b\u00e9": 7822,
  "\u0627\u064a": 7823,
  "\u2581growth": 7824,
  "\u2581\u043a\u0435\u0448\u0435\u043b\u04d9\u0440": 7825,
  "\u2581loku": 7826,
  "\u2581windows": 7827,
  "\u0432\u0435\u0434": 7828,
  "\u2581\u043c\u0430\u0440": 7829,
  "onga": 7830,
  "\u0499\u044b": 7831,
  "\u2581covered": 7832,
  "70": 7833,
  "\u0eb1\u0e9a": 7834,
  "\u0431\u04d9": 7835,
  "\u0442\u044b\u043d": 7836,
  "\u2581b\u00fa": 7837,
  "\u0c37": 7838,
  "nc": 7839,
  "\u2581context": 7840,
  "\u2581dir": 7841,
  "\u2581pure": 7842,
  "\u2581\u0199": 7843,
  "t\u1ee5": 7844,
  "\u2581kati": 7845,
  "\u10d0\u10dc": 7846,
  "\u2581Min": 7847,
  "vr": 7848,
  "\u2581parte": 7849,
  "\u2581\u1015": 7850,
  "\u2581Ter": 7851,
  "hur": 7852,
  "\u2581\u134d": 7853,
  "La": 7854,
  "\u2581tenei": 7855,
  "\u2581height": 7856,
  "\u2581includes": 7857,
  "\u2581\u09b6": 7858,
  "\u2581kaya": 7859,
  "\u2581occasion": 7860,
  "\u2581usually": 7861,
  "\u2581\u06cc\u0627": 7862,
  "\u5e76": 7863,
  "\u2581lau": 7864,
  "\u2581`%": 7865,
  "\u2581col": 7866,
  "\u0445\u044c": 7867,
  "\u2581nzoni": 7868,
  "\u0434\u043e\u0440": 7869,
  "\u2581\u043c\u043e\u0436\u0435": 7870,
  "\u2581\u0441\u044a": 7871,
  "\u0d2a\u0d4d\u0d2a": 7872,
  "\u2581\u067e\u0627\u0644\u06bb\u06be\u0627\u0631": 7873,
  "\u2581\u0627\u067e\u0646\u06d2": 7874,
  "\u2581vel": 7875,
  "\u2581\u043a\u0443\u043d": 7876,
  "\u2581earthly": 7877,
  "bes": 7878,
  "\u0c27": 7879,
  "\u2581Test": 7880,
  "\u2581Note": 7881,
  "aya": 7882,
  "\u2581patience": 7883,
  "\u25811914": 7884,
  "sje": 7885,
  "\u2581dhi": 7886,
  "\u2581\u1005": 7887,
  "\u2581existing": 7888,
  "\u2581rave": 7889,
  "\u2581\u0444\u0430\u0439\u043b": 7890,
  "\u0c35\u0c41": 7891,
  "\u2581foretold": 7892,
  "\u093f\u0915": 7893,
  "\u062a\u06c7\u0631": 7894,
  "\u2581Leza": 7895,
  "tico": 7896,
  "\u014b": 7897,
  "rai": 7898,
  "\u2581statement": 7899,
  "nel": 7900,
  "beni": 7901,
  "\u0d27": 7902,
  "\u2581Verily": 7903,
  "\u2581\u121d\u1235": 7904,
  "\u06a9\u0631\u062f": 7905,
  "\u061b": 7906,
  "\u2581papa": 7907,
  "\u2581\u05d0\u05e0\u05d9": 7908,
  "\u2581\u1000\u103b": 7909,
  "\u2581Witness": 7910,
  "l\u0101": 7911,
  "\u092e\u093e\u0928": 7912,
  "ggi": 7913,
  "zima": 7914,
  "\u0c28\u0c47": 7915,
  "\u2581baby": 7916,
  "\u00e7e": 7917,
  "\u2581\u0c8e": 7918,
  "\u2581staff": 7919,
  "\u2581\u179b": 7920,
  "\u0c97\u0cc6": 7921,
  "cos": 7922,
  "\u2581rech": 7923,
  "\u0b9a\u0bbf": 7924,
  "\u2581\u05d0\u05d9\u05df": 7925,
  "\u0628\u0646": 7926,
  "\u2581\u178a": 7927,
  "\u2581committed": 7928,
  "t\u012b": 7929,
  "\u0c26\u0c41": 7930,
  "\u0a93": 7931,
  "xt": 7932,
  "\u2581site": 7933,
  "\u0c26\u0c3f": 7934,
  "\u2581thanks": 7935,
  "\u2581III": 7936,
  "\u2581v\u00e0": 7937,
  "\u2581\u0627\u0633\u0627\u0646": 7938,
  "saa": 7939,
  "irt": 7940,
  "\u2581moving": 7941,
  "vir": 7942,
  "\u2581J\u00e9sus": 7943,
  "\u2581k\u00f5m": 7944,
  "uit": 7945,
  "\u2581ito": 7946,
  "\u017ca": 7947,
  "\u0430\u0432": 7948,
  "\u2581rey": 7949,
  "\u0440\u0435\u0434": 7950,
  "\u2581Kana": 7951,
  "\u03b9\u03c3": 7952,
  "49": 7953,
  "\u2581sunt": 7954,
  "\u0628\u0644": 7955,
  "\u2581sai": 7956,
  "\u2581anne": 7957,
  "\u2581font": 7958,
  "tiva": 7959,
  "\u2581opera": 7960,
  "\u65f6": 7961,
  "\u2581Sin": 7962,
  "\u094c": 7963,
  "\u101d": 7964,
  "\u2581neque": 7965,
  "\u2581applied": 7966,
  "\u2581lingbi": 7967,
  "\u2581ula": 7968,
  "\u2581\u1015\u102b": 7969,
  "\u2581\u0928\u0947": 7970,
  "\u2581g\u00fc": 7971,
  "\u0628\u062a": 7972,
  "\u2581todo": 7973,
  "\u2581tahi": 7974,
  "\u2581Ask": 7975,
  "\u2581tells": 7976,
  "\u0438\u0448\u0438": 7977,
  "\u2581wara": 7978,
  "\u2581Alkitab": 7979,
  "\u2581produkt": 7980,
  "t\u0254": 7981,
  "t\u00fc": 7982,
  "\u2581nako": 7983,
  "OS": 7984,
  "\u2581secret": 7985,
  "\u043a\u04d9\u043d": 7986,
  "01": 7987,
  "tero": 7988,
  "\u0bb5\u0bbf": 7989,
  "\u2581\u043c\u04d9": 7990,
  "\u2581assignment": 7991,
  "\u0e96": 7992,
  "\u2581\u0423\u043b": 7993,
  "\u2581ky": 7994,
  "\u17c2": 7995,
  "\u2581\u0535": 7996,
  "\u2581dapat": 7997,
  "\u2581wealth": 7998,
  "\u2581ite": 7999,
  "\u2581r\u00e2": 8000,
  "\u2581requires": 8001,
  "rika": 8002,
  "\u0e35": 8003,
  "\u043d\u0438\u0435": 8004,
  "\u2581wonder": 8005,
  "\u2581bab": 8006,
  "\u2581vari": 8007,
  "\u2581\u0632\u06cc\u0631\u0627": 8008,
  "ight": 8009,
  "iriza": 8010,
  "\u2581Ale": 8011,
  "\u307e": 8012,
  "75": 8013,
  "jja": 8014,
  "nung": 8015,
  "\u2581imperfect": 8016,
  "\u2581\u1001": 8017,
  "ous": 8018,
  "\u0d31\u0d4d\u0d31": 8019,
  "\u2581\u04e9\u0441\u04e9\u043d": 8020,
  "\u00fcm": 8021,
  "\u258142": 8022,
  "\u2581\u0ec3\u0e88": 8023,
  "gung": 8024,
  "\u2581assigned": 8025,
  "\u2581waiting": 8026,
  "\u2581bre": 8027,
  "\u0db8\u0dca": 8028,
  "\u0c17\u0c41": 8029,
  "\u2581\u0642\u0648": 8030,
  "\u2581midst": 8031,
  "\u064a\u0642": 8032,
  "\u2581spo": 8033,
  "ffer": 8034,
  "\u2581Euro": 8035,
  "lju": 8036,
  "\u2581black": 8037,
  "\u0443\u043c": 8038,
  "(1)": 8039,
  "\u0442\u044d": 8040,
  "\u2581\u1782": 8041,
  "\u0441\u043a\u043e": 8042,
  "\u2581directly": 8043,
  "\u258144": 8044,
  "\u2581\u0440\u044b": 8045,
  "bba": 8046,
  "\u1782": 8047,
  "\u06d4": 8048,
  "\u2581Which": 8049,
  "\u2581\u0dad": 8050,
  "\u043d\u0430\u043d": 8051,
  "\u0eb2\u0e8d": 8052,
  "\u2581mahi": 8053,
  "siku": 8054,
  "\u2581qua": 8055,
  "\u2581\u13a4\u13c1\u13b3\u13c5\u13af": 8056,
  "\u044d\u0434": 8057,
  "\u2581unless": 8058,
  "\u0e8a": 8059,
  "\u00e8n": 8060,
  "\u0434\u044b\u043d": 8061,
  "\u2581\u0431\u0438\u043b\u0435": 8062,
  "\u09a8\u09cd\u09a4": 8063,
  "\u2581\u03a0": 8064,
  "\u2581thank": 8065,
  "\u2581Bri": 8066,
  "\u2581\u1010\u102d\u102f\u1037": 8067,
  "\u2581\u062a\u0646\u06be\u0646": 8068,
  "skri": 8069,
  "\u2581\u0967": 8070,
  "\u2581\u039a": 8071,
  "DI": 8072,
  "\u2581placed": 8073,
  "\u5f88": 8074,
  "bula": 8075,
  "atsi": 8076,
  "\u043d\u043e\u0441\u0442\u0438": 8077,
  "\u2581quite": 8078,
  "w\u0254": 8079,
  "Da": 8080,
  "\u2581bantu": 8081,
  "\u09b8\u09c7": 8082,
  "\u044d\u043c": 8083,
  "\u2581Bra": 8084,
  "\u2581success": 8085,
  "kala": 8086,
  "\u2581correct": 8087,
  "\u2581rise": 8088,
  "\u2581\u4ed6": 8089,
  "\u30b9": 8090,
  "\u2581\u0ec2": 8091,
  "pis": 8092,
  "\u0628\u06cc": 8093,
  "\u2581\u0680": 8094,
  "hita": 8095,
  "z\u0131": 8096,
  "nyika": 8097,
  "\u0c2f\u0c41": 8098,
  "mi\u015f": 8099,
  "\u062e\u0648\u0627": 8100,
  "\u2581\u0928\u0939\u0940\u0902": 8101,
  "rsa": 8102,
  "\u2581chque": 8103,
  "\u2581ndzi": 8104,
  "\u0ccd\u0cb0": 8105,
  "hanga": 8106,
  "med": 8107,
  "plika": 8108,
  "\u2581xin": 8109,
  "bong": 8110,
  "\u0c82": 8111,
  "\u2581\u0627\u06af\u0631": 8112,
  "\u2581Ban": 8113,
  "lula": 8114,
  "obu": 8115,
  "nih": 8116,
  "\u0b30\u0b3f": 8117,
  "\u258120,": 8118,
  "\u0445\u0443": 8119,
  "\u2581\u0a9c": 8120,
  "\u2581uses": 8121,
  "\u2581faata": 8122,
  "vala": 8123,
  "\u2581bli": 8124,
  "\u2581\u0430\u0441\u0442": 8125,
  "\u2581\u1795\u17d2": 8126,
  "\u044a\u044f": 8127,
  "\u17a2": 8128,
  "hai": 8129,
  "\u2581\u120b\u12ed": 8130,
  "sim": 8131,
  "\u2581que\u00dfx": 8132,
  "\u2581\u03c4\u03c9\u03bd": 8133,
  "asyon": 8134,
  "\u0430\u0430\u0440": 8135,
  "\u0903": 8136,
  "\u043b\u044b\u04a1": 8137,
  "\u2581nini": 8138,
  "\u0442\u0430\u0448": 8139,
  "\u2581ind": 8140,
  "mie": 8141,
  "ful": 8142,
  "\u2581rahi": 8143,
  "\u2581\u043a\u043e\u0440": 8144,
  "\u2581Really": 8145,
  "\u2581reached": 8146,
  "\u2581gel": 8147,
  "yuda": 8148,
  "\u2581\u05e0": 8149,
  "fun": 8150,
  "\u2581\u09ab": 8151,
  "\u2581p\u00f2": 8152,
  "dyr": 8153,
  "\u064a\u0645": 8154,
  "\u2581hana": 8155,
  "\u2581\u062c\u0633": 8156,
  "\u2581higher": 8157,
  "\u2581fili": 8158,
  "All": 8159,
  "lf": 8160,
  "\u2581\u06af\u0648": 8161,
  "\u0648\u062a": 8162,
  "\u2581\u0641\u0647": 8163,
  "\u12da": 8164,
  "\u0430\u0436": 8165,
  "\u2581manifest": 8166,
  "\u2581percent": 8167,
  "\u2581\u06a9\u0631\u062f\u0647": 8168,
  "\u2581oia": 8169,
  "\u1000\u103c": 8170,
  "\u2581amu": 8171,
  "\u0e9b\u0eb0": 8172,
  "\u2581tel\u0101": 8173,
  "\u00e7\u00f5es": 8174,
  "\u05ea\u05d9": 8175,
  "\u0e44\u0e1b": 8176,
  "\u134b": 8177,
  "\u2581function": 8178,
  "\u2581\u021b": 8179,
  "\u0456\u0432": 8180,
  "\u2581seg": 8181,
  "\u2581wind": 8182,
  "\u2581aw": 8183,
  "\u2581\u0443\u043b\u0430\u0440": 8184,
  "\u2581police": 8185,
  "\u2581asa": 8186,
  "veni": 8187,
  "\u2581gud": 8188,
  "\u2581Children": 8189,
  "\u17b6\u1794\u17cb": 8190,
  "\u2581master": 8191,
  "r\u012b": 8192,
  "\u0ab0\u0ac0": 8193,
  "\u2581army": 8194,
  "\u2581k\u00e9": 8195,
  "\u2581waters": 8196,
  "\u2581personality": 8197,
  "vali": 8198,
  "idi": 8199,
  "\u2581\u00ddehowa": 8200,
  "sik": 8201,
  "tino": 8202,
  "\u2581otro": 8203,
  "\u0ab8\u0acd": 8204,
  "\u2581handle": 8205,
  "ongo": 8206,
  "och": 8207,
  "\u043b\u0442": 8208,
  "\u2581gid": 8209,
  "kter": 8210,
  "\u2581\u0926\u0947": 8211,
  "\u043f\u0440\u0430\u0432": 8212,
  "\u2581malo": 8213,
  "\u2581manager": 8214,
  "\u2581\u05e4": 8215,
  "\u2581\u067e\u0646\u06be\u0646\u062c\u064a": 8216,
  "ies": 8217,
  "rere": 8218,
  "mod": 8219,
  "\u2581jeh": 8220,
  "\u0646\u062f\u0699": 8221,
  "nei": 8222,
  "\u0578\u0582\u0569\u0575\u0578\u0582\u0576": 8223,
  "\u5bb6": 8224,
  "\u1004\u1037\u103a": 8225,
  "\u01a1": 8226,
  "\u0da9": 8227,
  "\u03b1\u03c1": 8228,
  "\u2581upp": 8229,
  "\u043d\u0430\u043b": 8230,
  "\u540d": 8231,
  "\u2581\u0430\u043a": 8232,
  "\u2581\u12a5\u12da": 8233,
  "\u0649\u0644": 8234,
  "nal": 8235,
  "\u2581delete": 8236,
  "\u2581rejected": 8237,
  "\u0441\u0442\u0430\u0432": 8238,
  "\u2581\u0a39\u0a4b": 8239,
  "\u092b": 8240,
  "inda": 8241,
  "\u0bb2\u0bc8": 8242,
  "\u2581gar": 8243,
  "\u2581\u00c8": 8244,
  "\u2581uiga": 8245,
  "\u2581Desktop": 8246,
  "\u2581fish": 8247,
  "\u2581\u0645\u06c7": 8248,
  "\u0561\u0572": 8249,
  "\u2581Paradise": 8250,
  "\u2581territory": 8251,
  "\u2581ava": 8252,
  "LI": 8253,
  "\u0a39\u0a3e": 8254,
  "\u2581capacity": 8255,
  "\u2581cap": 8256,
  "mmi": 8257,
  "\u2581card": 8258,
  "\u13d7\u13f1": 8259,
  "\u2581media": 8260,
  "\u2581Ano": 8261,
  "\u062f\u0645": 8262,
  "\u2581mada": 8263,
  "\u2581Ndi": 8264,
  "\u2581\u05d0\u05b7": 8265,
  "\u2581approval": 8266,
  "\u2581examine": 8267,
  "\u2581ont": 8268,
  "ject": 8269,
  "\u2581punkt": 8270,
  "\u03b9\u03b1": 8271,
  "\u2581waar": 8272,
  "\u017ea": 8273,
  "\u2581teachings": 8274,
  "\u2581\u0b2a\u0b4d\u0b30": 8275,
  "kas": 8276,
  "\u2581linga": 8277,
  "\u2581\u0431\u0438\u0441": 8278,
  "\u1218\u1295": 8279,
  "\u2581anthu": 8280,
  "EK": 8281,
  "\u2581dra": 8282,
  "\u2581loves": 8283,
  "\u2581amb": 8284,
  "\u2581nin": 8285,
  "\u043d\u044b\u0435": 8286,
  "\u0645\u064a": 8287,
  "cas": 8288,
  "\u0432\u0435\u0442": 8289,
  "\u2581ando": 8290,
  "[": 8291,
  "\u2581maha": 8292,
  "\u0644\u06d5\u0631": 8293,
  "\u06ce\u06a9": 8294,
  "\u2581p\u0101r": 8295,
  "\u0c2a\u0c41": 8296,
  "\u2581\u0430\u0439": 8297,
  "\u2581loko": 8298,
  "\u2581agree": 8299,
  "\u0646\u06af": 8300,
  "ssel": 8301,
  "\u0431\u0440": 8302,
  "cili": 8303,
  "\u2581\u0443\u0438": 8304,
  "\u2581\u0dc0\u0dd2": 8305,
  "\u2581sini": 8306,
  "\u2581\u062e\u06c6": 8307,
  "\u2581millions": 8308,
  "\u2581character": 8309,
  "igh": 8310,
  "\u2581v\u00f5i": 8311,
  "fici": 8312,
  "\u2581bata": 8313,
  "ngga": 8314,
  "\u064a\u0627\u062a": 8315,
  "\u03bf\u03c2": 8316,
  "\u2581mangi": 8317,
  "\u0563": 8318,
  "\u2581\u10d9": 8319,
  "\u0c28\u0c4d\u0c28": 8320,
  "UE": 8321,
  "\u2581extra": 8322,
  "\u2581promote": 8323,
  "\u2581mountain": 8324,
  "saka": 8325,
  "side": 8326,
  "\u2581vien": 8327,
  "\u2581produce": 8328,
  "\u2581rei": 8329,
  "ngela": 8330,
  "\u2581harmony": 8331,
  "\u10d4\u10d1\u10e1": 8332,
  "\u2581tume": 8333,
  "CH": 8334,
  "\u2581closer": 8335,
  "tuma": 8336,
  "\u2581tangata": 8337,
  "\u2581\u00d2": 8338,
  "\u0440\u0435\u043d": 8339,
  "\u2581doctor": 8340,
  "\u0626\u0647": 8341,
  "maga": 8342,
  "\u2581m\u00e0": 8343,
  "\u2581train": 8344,
  "\u2581hel": 8345,
  "\u2581unity": 8346,
  "\u2581\u0646\u06cc": 8347,
  "ador": 8348,
  "\u2581Katonda": 8349,
  "\u2581\u0101": 8350,
  "\u2581Suku": 8351,
  "\u25811999": 8352,
  "\u2581ship": 8353,
  "\u2581imo": 8354,
  "\u2581taka": 8355,
  "mate": 8356,
  "88": 8357,
  "\u2581\u0eab\u0ebc\u0eb2\u0e8d": 8358,
  "\u13cd\u13ac": 8359,
  "\u2581guard": 8360,
  "\u2581\u0e9b": 8361,
  "\u2581Jiova": 8362,
  "\u0995\u09be": 8363,
  "\u2581Two": 8364,
  "\u2581aro": 8365,
  "\u2581guy": 8366,
  "\u2581\u0bae\u0bc1": 8367,
  "\u2581sha": 8368,
  "\u258155": 8369,
  "\u81ea": 8370,
  "\u2581Click": 8371,
  "\u10d5\u10d4": 8372,
  "\u00e1n\u00ed": 8373,
  "\u2581\u0ca8\u0cbf": 8374,
  "\u0576\u0565\u0580\u0568": 8375,
  "nay": 8376,
  "\u2581\u0c38": 8377,
  "gina": 8378,
  "\u2581zva": 8379,
  "r\u00fc": 8380,
  "\u0441\u044d\u043d": 8381,
  "\u2581civil": 8382,
  "\u06be\u06d5": 8383,
  "\u2581pal": 8384,
  "\u2581sky": 8385,
  "leen": 8386,
  "\u10d4\u10e1": 8387,
  "\u2581Col": 8388,
  "\u2581lelei": 8389,
  "\u2581tool": 8390,
  "\u2581m\u0101": 8391,
  "\u2581\u05e4\u05bf\u05d5": 8392,
  "\u2581s\u00f3": 8393,
  "\u2581Kor": 8394,
  "\u53d1": 8395,
  "here": 8396,
  "\u2581id": 8397,
  "\u2581grateful": 8398,
  "\u0440\u0430\u043c": 8399,
  "\u2581Check": 8400,
  "\u0159e": 8401,
  "\u2581tongue": 8402,
  "b\u00f2": 8403,
  "uv": 8404,
  "\u2581\u0b2c": 8405,
  "\u2581pada": 8406,
  "\u2581dro": 8407,
  "were": 8408,
  "\u2581Mag": 8409,
  "\u2581hei": 8410,
  "\u2581\u0628\u0649\u0632": 8411,
  "\u0441\u0433\u044c\u044b": 8412,
  "som": 8413,
  "izi": 8414,
  "\u0bae\u0bbe": 8415,
  "iwa": 8416,
  "sc": 8417,
  "rian": 8418,
  "ctor": 8419,
  "lisi": 8420,
  "\u1787": 8421,
  "\u043d\u044b\u043c": 8422,
  "vos": 8423,
  "\u2581\u0627\u06cc\u06a9": 8424,
  "\u0dc5": 8425,
  "\u12f2": 8426,
  "\u2581opinion": 8427,
  "\u2581\u0391": 8428,
  "\u2581deny": 8429,
  "\u2581\u0443\u0447": 8430,
  "\u0649\u062f\u0649\u063a\u0627\u0646": 8431,
  "\u2581\u062c\u0628": 8432,
  "\u2581kepada": 8433,
  "gamba": 8434,
  "\u2581\u03a3": 8435,
  "\u2581egy": 8436,
  "\u0c1a\u0c3f": 8437,
  "\u0c26\u0c3e": 8438,
  "\u2581Mer": 8439,
  "\u0f58\u0f0b": 8440,
  "\u0633\u06cc": 8441,
  "\u0628\u06d5": 8442,
  "\u0695\u06ce": 8443,
  "\u2581rar": 8444,
  "\u2581Mana": 8445,
  "\u0938\u093e": 8446,
  "\u2581raise": 8447,
  "\u049b\u0438": 8448,
  "hamba": 8449,
  "sche": 8450,
  "\u2581Shi": 8451,
  "\u2581\u0442\u04e9": 8452,
  "\u258122,": 8453,
  "\u2581eku": 8454,
  "\u2581yes": 8455,
  "\u0a30\u0a40": 8456,
  "\u2581Inter": 8457,
  "\u2581\u05d6\u05d4": 8458,
  "\u2581pin": 8459,
  "ings": 8460,
  "kua": 8461,
  "\u17d2\u179b": 8462,
  "\u2581iek": 8463,
  "\u2581\u0632\u06c6\u0631": 8464,
  "haka": 8465,
  "\u2581t\u00e8": 8466,
  "\u2581host": 8467,
  "\u2581outou": 8468,
  "\u2581Pas": 8469,
  "ual": 8470,
  "\u0633\u0627\u0646": 8471,
  "jana": 8472,
  "\u2581Kau": 8473,
  "\u0433\u0430\u0440": 8474,
  "\u2581noted": 8475,
  "\u04d9\u0442": 8476,
  "\u2581TO": 8477,
  "\u2581\u09b8\u09be": 8478,
  "tr": 8479,
  "\u2581ane": 8480,
  "\u0e88": 8481,
  "\u2581Han": 8482,
  "\u2581\u0639\u0646": 8483,
  "\u2581ide": 8484,
  "\u2581moment": 8485,
  "\u1030": 8486,
  "list": 8487,
  "\u2581\u0a28\u0a47": 8488,
  "\u2581amene": 8489,
  "\u2581\u0626\u0649\u0634": 8490,
  "\u2581\u09af\u09be": 8491,
  "\u012bbu": 8492,
  "\u2581\u043f\u0440\u0430": 8493,
  "\u010be": 8494,
  "ves": 8495,
  "pass": 8496,
  "\u04d1\u0448": 8497,
  "\u13a7": 8498,
  "wini": 8499,
  "\u2581\u0578\u0582": 8500,
  "\u2581hearing": 8501,
  "\u2581Nie": 8502,
  "\u0442\u0430\u043f": 8503,
  "\u2581saka": 8504,
  "uj": 8505,
  "\u03b8\u03b5": 8506,
  "\u2581procedure": 8507,
  "bbli": 8508,
  "\u2581Options": 8509,
  "\u2581\u0c38\u0c02": 8510,
  "\u2581situations": 8511,
  "\u0443\u0440\u0430": 8512,
  "\u2581presented": 8513,
  "\u0930\u094b": 8514,
  "\u2581lands": 8515,
  "\u2581compassion": 8516,
  "luar": 8517,
  "\u0dd4\u0dc0": 8518,
  "\u0c32\u0c4d": 8519,
  "\u2581\u0419\u04d9\u04bb\u04af\u04d9": 8520,
  "\u2581hun": 8521,
  "l\u00f2": 8522,
  "\u2581silver": 8523,
  "usta": 8524,
  "\u2581Sidi": 8525,
  "eva": 8526,
  "\u2581France": 8527,
  "nju": 8528,
  "\u2581i\u00e7in": 8529,
  "\u2581keeping": 8530,
  "\u2581Art": 8531,
  "\u0d35\u0d3e": 8532,
  "\u2581\u5728": 8533,
  "\u540e": 8534,
  "\u2581\u0410\u043d\u0446\u04d9\u0430": 8535,
  "gama": 8536,
  "\u06c8\u0631": 8537,
  "\u2581m\u00fb": 8538,
  "\u044b\u0443": 8539,
  "\u2581\u0434\u04d5\u0440": 8540,
  "tsu": 8541,
  "\u2581\u178f\u17be": 8542,
  "\u2581Mas": 8543,
  "\u10dc\u10d8": 8544,
  "\u2581\u1215": 8545,
  "\u2581\u05d6": 8546,
  "bad": 8547,
  "hte": 8548,
  "\u2581Every": 8549,
  "\u2581\u062c\u0627\u0646": 8550,
  "t\u00ee": 8551,
  "c\u00eb": 8552,
  "\u2581Tohi": 8553,
  "\u2581\u05d3\u05d9": 8554,
  "\u069a": 8555,
  "\u2581taa": 8556,
  "\u2581tribulation": 8557,
  "\u067f": 8558,
  "24": 8559,
  "\u2581crowd": 8560,
  "\u2581bro": 8561,
  "\u1015\u103a": 8562,
  "singa": 8563,
  "\u2581n\u00edn\u00fa": 8564,
  "k\u00f9": 8565,
  "\u2581\u043b\u0430": 8566,
  "\u2581\u092e\u0941": 8567,
  "\u00fdan": 8568,
  "maz": 8569,
  "\u300c": 8570,
  "\u2581express": 8571,
  "\u2581lesson": 8572,
  "\u2581koya": 8573,
  "kia": 8574,
  "\u2581unknown": 8575,
  "\u2581sovereignty": 8576,
  "\u2581\u0e81": 8577,
  "\u2581\u0645\u06d5": 8578,
  "\u2581Sh": 8579,
  "\u2581Nevertheless": 8580,
  "sya": 8581,
  "pel": 8582,
  "\u2581paid": 8583,
  "\u2581separate": 8584,
  "\u2581whoever": 8585,
  "mula": 8586,
  "\u2581prze": 8587,
  "\u04d5\u0434": 8588,
  "\u2581doon": 8589,
  "vid": 8590,
  "\u2581gali": 8591,
  "\u2581\u042b": 8592,
  "tigi": 8593,
  "\u0564": 8594,
  "\u2581\u0647\u06cc\u0686": 8595,
  "\u2581guided": 8596,
  "dha": 8597,
  "\u2581\u0915\u0930\u0942": 8598,
  "\u2581posi": 8599,
  "\u0eb7": 8600,
  "\u2581ord": 8601,
  "\u2581Date": 8602,
  "\u8fd8": 8603,
  "\u2581i\u015f": 8604,
  "\u2581qual": 8605,
  "\u2581practices": 8606,
  "\u2581encouragement": 8607,
  "\u2581parties": 8608,
  "buh": 8609,
  "key": 8610,
  "\u0627\u0639": 8611,
  "\u17b6\u1799": 8612,
  "\u2581Over": 8613,
  "\u2581Treaty": 8614,
  "LO": 8615,
  "\u1266": 8616,
  "\u2581daughters": 8617,
  "\u2581k\u00f5": 8618,
  "\u2581technical": 8619,
  "\u2581\u067e\u0648": 8620,
  "f\u00ed": 8621,
  "\u2581naan": 8622,
  "\u2581\u09a4": 8623,
  "\u0642\u0627\u0646": 8624,
  "\u12bb": 8625,
  "\u0627\u0648": 8626,
  "\u2581toto": 8627,
  "\u2581\u0e2a": 8628,
  "\u2581\u00c0": 8629,
  "jak": 8630,
  "\u2581although": 8631,
  "uc": 8632,
  "\u0baa\u0bcd": 8633,
  "\u10d0\u10db": 8634,
  "\u2581diad": 8635,
  "our": 8636,
  "\u2581\u0443\u0447\u0443\u043d": 8637,
  "\u2581seki": 8638,
  "\u2581\u0e17\u0e35\u0e48": 8639,
  "\u062a\u064a": 8640,
  "\u2581Gre": 8641,
  "\u0434\u043e\u043d": 8642,
  "\u2581Security": 8643,
  "\u2581Kua": 8644,
  "\u65b9": 8645,
  "\u0d3f\u0d32\u0d4d\u0d32": 8646,
  "\u2581Location": 8647,
  "rze": 8648,
  "\u2581Mount": 8649,
  "rok": 8650,
  "hir": 8651,
  "dhe": 8652,
  "\u043a\u0435\u0440": 8653,
  "\u03bb\u03b1": 8654,
  "\u0443\u0442": 8655,
  "\u2581ngagai": 8656,
  "\u10d1": 8657,
  "\u0578\u0582\u0569\u0575\u0561\u0576": 8658,
  "\u2581produ": 8659,
  "\u2581\u0432\u0456\u0434": 8660,
  "\u2581\u1325": 8661,
  "heid": 8662,
  "uin": 8663,
  "\u2581\u00f1i": 8664,
  "\u2581\u06cc\u0647": 8665,
  "\u2581\u1001\u1032\u1037": 8666,
  "95": 8667,
  "\u2581dedicated": 8668,
  "\u0932\u094d": 8669,
  "\u2581decide": 8670,
  "\u300a": 8671,
  "\u00fct": 8672,
  "\u1276": 8673,
  "\u2581sat": 8674,
  "\u2581Kar": 8675,
  "\u2581documents": 8676,
  "\u06ce\u062a": 8677,
  "lagi": 8678,
  "det": 8679,
  "KA": 8680,
  "\u2581broken": 8681,
  "\u2581Minister": 8682,
  "45": 8683,
  "\u133b": 8684,
  "\u0561\u056e": 8685,
  "\u0627\u06cc\u0647": 8686,
  "\u13cd\u13aa": 8687,
  "\u2581\u0421\u0435": 8688,
  "gana": 8689,
  "\u04a3\u0430": 8690,
  "\u2581Nama": 8691,
  "lad": 8692,
  "\u0d41\u0d33\u0d4d\u0d33": 8693,
  "\u0648\u0633": 8694,
  "bera": 8695,
  "\u2581\u10d7": 8696,
  "\u04bb\u044b": 8697,
  "\u2581\u03b4": 8698,
  "\u0627\u0626\u064a\u0646": 8699,
  "\u09a4\u09be": 8700,
  "yp": 8701,
  "\u2581anh": 8702,
  "\u2581configuration": 8703,
  "\u0d1c": 8704,
  "KO": 8705,
  "\u2581Sun": 8706,
  "\u2581\u0648\u064a": 8707,
  "\u043b\u0430\u043f": 8708,
  "\u2581siya": 8709,
  "\u2581www": 8710,
  "\u2581medical": 8711,
  "\u300d": 8712,
  "\u0d4a": 8713,
  "ibwa": 8714,
  "\u2581cuanqueb": 8715,
  "tag": 8716,
  "\u2581sake": 8717,
  "g\u0101": 8718,
  "\u0c15\u0c3f": 8719,
  "\u2581root": 8720,
  "stav": 8721,
  "\u062f\u06c7": 8722,
  "vre": 8723,
  "\u2581Stop": 8724,
  "\u2581bio": 8725,
  "UR": 8726,
  "rau": 8727,
  "enge": 8728,
  "ni\u0148": 8729,
  "\u2581cre": 8730,
  "\u2581radio": 8731,
  "meri": 8732,
  "lega": 8733,
  "kita": 8734,
  "\u13e4\u13b5": 8735,
  "umi": 8736,
  "\u2581Sara": 8737,
  "ngen": 8738,
  "\u2581teu": 8739,
  "\u2581stone": 8740,
  "\u0161anas": 8741,
  "\u2581\u04d8": 8742,
  "\u0438\u043f": 8743,
  "\u2581\u1eb9": 8744,
  "\u2581wana": 8745,
  "\u0431\u0435\u0440": 8746,
  "\u2581\u1798\u17b7\u1793": 8747,
  "\u4f53": 8748,
  "r\u00e1n": 8749,
  "\u2581Vu": 8750,
  "\u2581\u0aa6": 8751,
  "\u2581Yi": 8752,
  "\u2581Fire": 8753,
  "\u2581Ph": 8754,
  "\u13ec": 8755,
  "\u2581\u0aae": 8756,
  "\u00e1il": 8757,
  "\u2581developing": 8758,
  "lect": 8759,
  "\u03c4\u03bf": 8760,
  "gay": 8761,
  "bone": 8762,
  "\u2581ohun": 8763,
  "az": 8764,
  "\u043a\u043e\u0432": 8765,
  "\u2581fill": 8766,
  "\u044a\u0440": 8767,
  "\u2581taua": 8768,
  "\u2581numa": 8769,
  "\u2581\u00ab%": 8770,
  "tini": 8771,
  "ette": 8772,
  "\u2581\u0442\u0435\u0441\u0435": 8773,
  "\u043d\u044b\u043d": 8774,
  "\u2581\u13a2\u13f3": 8775,
  "85": 8776,
  "\u2581capital": 8777,
  "mint": 8778,
  "alu": 8779,
  "\u2581\u043a\u0430\u0440\u0430": 8780,
  "rant": 8781,
  "s\u0131": 8782,
  "\u2581\u044f\u0440\u0430\u0442": 8783,
  "kker": 8784,
  "\u2581\u0646\u0648": 8785,
  "\u2581glad": 8786,
  "l\u0259ri": 8787,
  "\u0622": 8788,
  "\u2581Office": 8789,
  "\u05d9\u05e9": 8790,
  "n\u00e0": 8791,
  "\u2581military": 8792,
  "\u1001": 8793,
  "ngisa": 8794,
  "blo": 8795,
  "\u2581exactly": 8796,
  "\u2581Ah": 8797,
  "\u2581costs": 8798,
  "MI": 8799,
  "oto": 8800,
  "\u1ebf": 8801,
  "\u2581mod": 8802,
  "bara": 8803,
  "\u0645\u0631": 8804,
  "\u2581homes": 8805,
  "\u2581ng\u01b0\u1eddi": 8806,
  "\u2581\u0e41\u0e25\u0e30": 8807,
  "\u10d0\u10e1": 8808,
  "\u2581\u04e9\u04e9\u0440": 8809,
  "\u2581bez": 8810,
  "\u2581Gen": 8811,
  "\u0cb2\u0ccd\u0cb2\u0cbf": 8812,
  "\u2581jas": 8813,
  "\u0442\u043e\u043d": 8814,
  "\u04e9\u0442": 8815,
  "lley": 8816,
  "\u2581ngir": 8817,
  "\u2581Matt": 8818,
  "\u2581g\u00f6": 8819,
  "\u1011": 8820,
  "\u2581waste": 8821,
  "\u049f": 8822,
  "hor": 8823,
  "\u101b\u103e": 8824,
  "r\u00e6": 8825,
  "\u2581hogy": 8826,
  "\u2581\u0a39": 8827,
  "\u2581aux": 8828,
  "\u2581\u00efa": 8829,
  "\u2581\u05e9\u05dc": 8830,
  "\u300b": 8831,
  "\u2581Messiah": 8832,
  "\u2581fail": 8833,
  "\u2581p\u00e8": 8834,
  "\u0430\u049b": 8835,
  "rua": 8836,
  "\u0259r": 8837,
  "\u2581hidden": 8838,
  "\u2581zijn": 8839,
  "maka": 8840,
  "cto": 8841,
  "\u04d9\u043a": 8842,
  "\u013c": 8843,
  "\u2581kya": 8844,
  "gaan": 8845,
  "\u2581\u10d8": 8846,
  "\u9762": 8847,
  "\u2581fulfillment": 8848,
  "\u1036": 8849,
  "rica": 8850,
  "\u00e0n": 8851,
  "\u2581iho": 8852,
  "\u2581\u10d0": 8853,
  "\u043b\u0430\u0440\u043d\u0438": 8854,
  "\u2581pres": 8855,
  "\u2581vona": 8856,
  "\u2581tona": 8857,
  "\u2581taotao": 8858,
  "bala": 8859,
  "\u2581onto": 8860,
  "\u2581\u0642\u0649\u0644\u063a\u0627\u0646": 8861,
  "\u2581Asa": 8862,
  "\u2581humility": 8863,
  "kay": 8864,
  "acht": 8865,
  "\u308f": 8866,
  "\u2581\u06be\u0627": 8867,
  "\u0259m": 8868,
  "\u2581nagpa": 8869,
  "\u0982": 8870,
  "\u2581communication": 8871,
  "\u17b6\u1793": 8872,
  "\u2581sacrifices": 8873,
  "\u2581\u0111\u00e3": 8874,
  "\u00f6s": 8875,
  "\u2581allows": 8876,
  "\u2581contrast": 8877,
  "\u2581convention": 8878,
  "prim": 8879,
  "\u2581\u062f\u0644": 8880,
  "\u0131n\u0131": 8881,
  "\u2581\u067e\u06be\u0631": 8882,
  "\u2581hulle": 8883,
  "\u2581household": 8884,
  "hun": 8885,
  "\u2581February": 8886,
  "\u2581\u0a05\u0a24\u0a47": 8887,
  "\u5427": 8888,
  "\u2581\u043a\u0430\u0440": 8889,
  "\u2581\u0447\u0443": 8890,
  "oka": 8891,
  "\u2581SONGS": 8892,
  "\u2581Though": 8893,
  "\u2581Mari": 8894,
  "kum": 8895,
  "t\u016b": 8896,
  "\u1208\u12cd": 8897,
  "\u258148": 8898,
  "lema": 8899,
  "dno": 8900,
  "\u2581mapa": 8901,
  "\u2581Tre": 8902,
  "66": 8903,
  "\u2581Nan": 8904,
  "pak": 8905,
  "\u2581Maria": 8906,
  "\u2581relative": 8907,
  "\u0aac": 8908,
  "\u2581\u1010\u101a\u103a": 8909,
  "\u0578\u0582\u0580": 8910,
  "cum": 8911,
  "\u2581sex": 8912,
  "rent": 8913,
  "dur": 8914,
  "\u2581kra": 8915,
  "\u2581\u0438\u043b\u0438": 8916,
  "59": 8917,
  "\u0d3f\u0d1a\u0d4d\u0d1a": 8918,
  "\u2581\u043a\u0435\u0448\u0435": 8919,
  "\u0ba3\u0bcd\u0b9f": 8920,
  "\u0e39": 8921,
  "\u2581\u0928\u093e\u0939\u0940": 8922,
  "\u2581youth": 8923,
  "\u0642\u0631": 8924,
  "\u2581\u092f\u0939\u094b\u0935\u093e": 8925,
  "\u2581\u0c26": 8926,
  "nych": 8927,
  "\u2581\u056b\u0580": 8928,
  "yny": 8929,
  "\u2581chix": 8930,
  "\u2581consideration": 8931,
  "\u2581folders": 8932,
  "Li": 8933,
  "\u2581Ez": 8934,
  "\u2581gal": 8935,
  "\u0ab0\u0abe": 8936,
  "\u2581\u067e\u06cc": 8937,
  "\u2581becomes": 8938,
  "\u0578\u0576": 8939,
  "pere": 8940,
  "\u2581\u05e6": 8941,
  "\u0a40\u0a06\u0a02": 8942,
  "Add": 8943,
  "\u2581(3)": 8944,
  "\u2581bula": 8945,
  "\u2581affected": 8946,
  "\u12ce\u127d": 8947,
  "fal": 8948,
  "\u09bf\u0995": 8949,
  "\u2581carefully": 8950,
  "\u2581join": 8951,
  "CO": 8952,
  "\u25812016": 8953,
  "\u2581Qa": 8954,
  "pos": 8955,
  "\u2581ges": 8956,
  "\u2581\u4e0d": 8957,
  "}": 8958,
  "\u0d17": 8959,
  "\u2581perform": 8960,
  "\u2581illustration": 8961,
  "\u2581\u0648\u062a": 8962,
  "\u043a\u044a": 8963,
  "\u25814)": 8964,
  "\u62c9": 8965,
  "\u2581establish": 8966,
  "\u0ca4\u0ccd\u0ca4": 8967,
  "\u2581\u0445\u04af\u043d": 8968,
  "\u2581Game": 8969,
  "\u2581Kalou": 8970,
  "\u2581\u043f\u0435\u0440\u0435": 8971,
  "\u2581wilderness": 8972,
  "\u2581sul": 8973,
  "1/": 8974,
  "\u049b\u0430": 8975,
  "\u2581recognize": 8976,
  "nong": 8977,
  "\u2581tem": 8978,
  "\u2581multitude": 8979,
  "\u13cd\u13d9\u13d7": 8980,
  "\u2581bai": 8981,
  "nome": 8982,
  "\u3066": 8983,
  "\u2581Nzambe": 8984,
  "\u2581observed": 8985,
  "90": 8986,
  "\u2581August": 8987,
  "\u2581\u068f\u064a": 8988,
  "\u2581belongs": 8989,
  "\u2581Era": 8990,
  "\u2581etc": 8991,
  "\u0932\u093f": 8992,
  "\u5929": 8993,
  "\u2581muli": 8994,
  "\u2581Address": 8995,
  "\u0458\u0435": 8996,
  "\u044f\u0440": 8997,
  "\u2581Kita": 8998,
  "ngwa": 8999,
  "\u05d5\u05dc": 9000,
  "pun": 9001,
  "nali": 9002,
  "\u2581tho": 9003,
  "\u2581\u0d28\u0d3f": 9004,
  "\u5148\u751f": 9005,
  "\u2581software": 9006,
  "\u0cc8": 9007,
  "\u2581hide": 9008,
  "\u2581\u062a\u0639": 9009,
  "\u2581Free": 9010,
  "has": 9011,
  "\u2581\u06be\u06d5\u0642\u0649\u0642\u06d5\u062a\u06d5\u0646": 9012,
  "\u2581supply": 9013,
  "\u0bc1\u0b95\u0bcd\u0b95\u0bc1": 9014,
  "\u2581\u0433\u0443": 9015,
  "\u0cbe\u0cb0": 9016,
  "\u2581Y\u00e9sus": 9017,
  "\u5f53": 9018,
  "\u2581fram": 9019,
  "\u0631\u062f\u0647": 9020,
  "\u2581\u0924\u0930": 9021,
  "\u2581ibukin": 9022,
  "\u25812015": 9023,
  "\u2581Heb": 9024,
  "nio": 9025,
  "mic": 9026,
  "\u2581miles": 9027,
  "\u2581Should": 9028,
  "\u092a\u0941": 9029,
  "kra": 9030,
  "\u0443\u0437": 9031,
  "\u2581\u0627\u0644\u062a\u064a": 9032,
  "\u2581Play": 9033,
  "\u258123:": 9034,
  "ins": 9035,
  "\u2581\u0a32\u0a08": 9036,
  "lara": 9037,
  "bhe": 9038,
  "\u2581across": 9039,
  "\u2581Uku": 9040,
  "f\u00f6r": 9041,
  "\u0645\u0628\u0647": 9042,
  "\u015fy": 9043,
  "ahi": 9044,
  "\u2581bari": 9045,
  "\u2581fel": 9046,
  "OP": 9047,
  "\u2581\u0924\u0947": 9048,
  "\u2581National": 9049,
  "ubu": 9050,
  "\u0bbf\u0bb2\u0bcd": 9051,
  "\u17d0": 9052,
  "\u2581goods": 9053,
  "\u2581nam": 9054,
  "\u258141": 9055,
  "eni": 9056,
  "\u2581sector": 9057,
  "\u10d4\u10d5": 9058,
  "\u2581pasi": 9059,
  "iraa": 9060,
  "\u2581n\u00e3o": 9061,
  "\u044b\u0445": 9062,
  "\u0935\u093f": 9063,
  "dini": 9064,
  "\u95ee\u9898": 9065,
  "\u2581\u00f6z": 9066,
  "\u2581tij": 9067,
  "\u0412": 9068,
  "\u2581remained": 9069,
  "\u5916": 9070,
  "\u2581produced": 9071,
  "\u0632\u0647": 9072,
  "\u2581sacred": 9073,
  "\u2581\u0446\u044b": 9074,
  "\u0437\u044b\u043d": 9075,
  "\u09be\u09f0": 9076,
  "\u2581nuo": 9077,
  "\u2581hiya": 9078,
  "\u2581observe": 9079,
  "\u2581projects": 9080,
  "yang": 9081,
  "\u0449\u0430": 9082,
  "\u2581\u041c\u0435": 9083,
  "\u2581visited": 9084,
  "\u2581\u12aa": 9085,
  "\u2581install": 9086,
  "\u2581\u0430\u0431": 9087,
  "\u0dad\u0dd4": 9088,
  "ted": 9089,
  "\u2581description": 9090,
  "\u0ab3": 9091,
  "qe": 9092,
  "\u2581\u0dc4": 9093,
  "\u2581\u0995\u09b0\u09c7": 9094,
  "\u0d24\u0d41": 9095,
  "\u2581ning": 9096,
  "\u2581paradise": 9097,
  "\u2581\u0567\u0580": 9098,
  "c\u0259": 9099,
  "Ku": 9100,
  "\u2581niet": 9101,
  "\u2581\u0a09": 9102,
  "\u2581Simon": 9103,
  "\u0444\u0430": 9104,
  "\u2581meant": 9105,
  "wali": 9106,
  "\u0cbe\u0c97\u0cbf": 9107,
  "\u2581anali": 9108,
  "\u2581buy": 9109,
  "\u2581\u0630": 9110,
  "\u03bb\u03b7": 9111,
  "\u6587": 9112,
  "\u043b\u04d9\u043d": 9113,
  "\u2581\u015fi": 9114,
  "\u2581guys": 9115,
  "\u0131nda": 9116,
  "\u2581isn": 9117,
  "ingon": 9118,
  "pti": 9119,
  "\u2581strive": 9120,
  "\u2581despite": 9121,
  "mur": 9122,
  "\u2581deeply": 9123,
  "zioni": 9124,
  "\u2581manatu": 9125,
  "\u2581French": 9126,
  "\u2581vos": 9127,
  "dent": 9128,
  "k\u00e4": 9129,
  "tonu": 9130,
  "AP": 9131,
  "\u0695\u0627": 9132,
  "\u2581kao": 9133,
  "\u00e4\u00e4n": 9134,
  "\u044b\u043c\u0430\u0448": 9135,
  "\u2581notice": 9136,
  "\u2581\u0a06": 9137,
  "\u2581sua": 9138,
  "General": 9139,
  "\u0e44": 9140,
  "\u2581Eb": 9141,
  "\u043b\u044e": 9142,
  "\u2581\u4eba": 9143,
  "\u2581Cur": 9144,
  "\u2581\u0cae\u0cbe\u0ca1": 9145,
  "\u2581severe": 9146,
  "tif": 9147,
  "\u0bb1\u0bc1": 9148,
  "hala": 9149,
  "n\u0254": 9150,
  "\u0a9c": 9151,
  "\u2581\u044d\u043b\u0435": 9152,
  "\u05e6\u05d9": 9153,
  "\u2581Mal": 9154,
  "\u2581\u13ac": 9155,
  "wala": 9156,
  "tig": 9157,
  "\u2581calendar": 9158,
  "\u0436\u044d\u044d": 9159,
  "\u2581imagine": 9160,
  "\u092f\u094b": 9161,
  "\u2581kw": 9162,
  "\u0300": 9163,
  "\u2581grace": 9164,
  "out": 9165,
  "\u2581ach": 9166,
  "\u0583": 9167,
  "\u0627\u0632": 9168,
  "\u2581kena": 9169,
  "oba": 9170,
  "\u043e\u0448": 9171,
  "\u0916\u093e": 9172,
  "time": 9173,
  "\u0bc1\u0b9f\u0bc8\u0baf": 9174,
  "\u2581levels": 9175,
  "\u0e16": 9176,
  "\u2581ukuthi": 9177,
  "\u2581\u662f": 9178,
  "\u0936\u0940": 9179,
  "\u0648\u0628": 9180,
  "\u2581Fre": 9181,
  "\u0627\u0631\u064a": 9182,
  "\u043d\u0447\u0430": 9183,
  "\u2581overcome": 9184,
  "\u2581\u12e8\u1270": 9185,
  "\u5c06": 9186,
  "\u0441\u0442\u0430\u043d": 9187,
  "\u1012": 9188,
  "\u2581obi": 9189,
  "\u064a\u062a": 9190,
  "\u2581Pharisees": 9191,
  "abo": 9192,
  "\u2581declared": 9193,
  "bali": 9194,
  "\u0f61\u0f72\u0f42\u0f0b\u0f46\u0f0b": 9195,
  "\u2581sir": 9196,
  "\u0649\u062a\u0649": 9197,
  "\u06af\u0648": 9198,
  "\u2581German": 9199,
  "\u2581Ihowa": 9200,
  "\u2581pleasure": 9201,
  "\u03c3\u03b7\u03c2": 9202,
  "ndri": 9203,
  "\u2581\u0648\u0627\u0644\u0627": 9204,
  "ningen": 9205,
  "l\u00e0": 9206,
  "\u2581TV": 9207,
  "\u2581\u0445\u044d": 9208,
  "\u2581%2": 9209,
  "bwi": 9210,
  "yamba": 9211,
  "\u2581arrived": 9212,
  "\u2581\u0a17": 9213,
  "\u2581impact": 9214,
  "\u2581ime": 9215,
  "\u10d0\u10da": 9216,
  "\u2581\u04e9": 9217,
  "maan": 9218,
  "\u6c11": 9219,
  "Mwari": 9220,
  "ido": 9221,
  "\u2581\u17b2\u17d2\u1799": 9222,
  "-1": 9223,
  "\u2581Ob": 9224,
  "\u2581\u2019?": 9225,
  "\u2581\u06c1\u06cc": 9226,
  "tya": 9227,
  "alt": 9228,
  "\u2581\u0d0e\u0d28\u0d4d\u0d28": 9229,
  "\u2581estas": 9230,
  "\u2581\u0633\u0649\u0644\u06d5\u0631": 9231,
  "PS": 9232,
  "\u2581\u043f\u0443\u043b\u0442\u0430\u0440": 9233,
  "\u2581\u0ea1": 9234,
  "fwa": 9235,
  "\u2581w\u00f2": 9236,
  "\u2581\u0647\u0631": 9237,
  "\u2581kli": 9238,
  "shin": 9239,
  "\u0e17\u0e4d\u0e32": 9240,
  "\u2581Nda": 9241,
  "IC": 9242,
  "lav": 9243,
  "96": 9244,
  "\u0442\u044d\u0439": 9245,
  "KE": 9246,
  "\u2581Was": 9247,
  "\u2581accurate": 9248,
  "\u2581population": 9249,
  "i\u00f1": 9250,
  "\u2581\u1799\u17be\u1784": 9251,
  "\u2581flock": 9252,
  "rana": 9253,
  "\u0c1a": 9254,
  "jun": 9255,
  "\u0b1f": 9256,
  "\u0c23": 9257,
  "\u0670": 9258,
  "\u2581paagi": 9259,
  "\u2581\u0423\u043b\u0430\u0440": 9260,
  "\u2581installed": 9261,
  "\u2581onye": 9262,
  "\u2581pleased": 9263,
  "\u2581m\u1ed9t": 9264,
  "\u0cb0\u0cc6": 9265,
  "MO": 9266,
  "\u057e\u0561\u056e": 9267,
  "\u2581Australia": 9268,
  "AD": 9269,
  "araa": 9270,
  "\u2581\u0263ef": 9271,
  "\u03ac\u03bd": 9272,
  "\u2581Contact": 9273,
  "hl": 9274,
  "\u2581careful": 9275,
  "02": 9276,
  "\u2581ix": 9277,
  "\u2581xc": 9278,
  "\u2581w\u00e1": 9279,
  "book": 9280,
  "\u043b\u0430\u0440\u0434\u0430\u043d": 9281,
  "\u2581kanga": 9282,
  "\u0561\u0570": 9283,
  "\u2581\u0430\u0432": 9284,
  "\u2581\u0190isa": 9285,
  "\u2581throne": 9286,
  "\u2581\u0e9e": 9287,
  "alta": 9288,
  "\u09be\u09b0": 9289,
  "\u2581gla": 9290,
  "kkut": 9291,
  "\u2581\u266a": 9292,
  "\u2581g\u00fcn": 9293,
  "\u2581rain": 9294,
  "\u2581red": 9295,
  "\u2581est\u00e1": 9296,
  "ney": 9297,
  "\u2581sei": 9298,
  "gor": 9299,
  "daw": 9300,
  "\u2581Pan": 9301,
[...]
